{
  "merges": [
    [
      "e",
      "</w>"
    ],
    [
      "t",
      "h"
    ],
    [
      "s",
      "</w>"
    ],
    [
      "t",
      "</w>"
    ],
    [
      "d",
      "</w>"
    ],
    [
      ",",
      "</w>"
    ],
    [
      "r",
      "</w>"
    ],
    [
      "y",
      "</w>"
    ],
    [
      "n",
      "</w>"
    ],
    [
      "o",
      "u"
    ],
    [
      "o",
      "</w>"
    ],
    [
      "a",
      "n"
    ],
    [
      ":",
      "</w>"
    ],
    [
      "i",
      "n"
    ],
    [
      ".",
      "</w>"
    ],
    [
      "l",
      "</w>"
    ],
    [
      "a",
      "r"
    ],
    [
      "an",
      "d</w>"
    ],
    [
      "th",
      "e</w>"
    ],
    [
      "e",
      "r"
    ],
    [
      "'",
      "</w>"
    ],
    [
      "e",
      "r</w>"
    ],
    [
      "o",
      "r"
    ],
    [
      "h",
      "a"
    ],
    [
      "e",
      "n"
    ],
    [
      "i",
      "s</w>"
    ],
    [
      "f",
      "</w>"
    ],
    [
      "i",
      "</w>"
    ],
    [
      "l",
      "l</w>"
    ],
    [
      "y",
      "ou"
    ],
    [
      "t",
      "o</w>"
    ],
    [
      "e",
      "a"
    ],
    [
      "n",
      "o"
    ],
    [
      "in",
      "g"
    ],
    [
      "w",
      "i"
    ],
    [
      "o",
      "n"
    ],
    [
      "th",
      "</w>"
    ],
    [
      "e",
      "s"
    ],
    [
      "a",
      "</w>"
    ],
    [
      "m",
      "</w>"
    ],
    [
      "m",
      "e</w>"
    ],
    [
      "o",
      "f</w>"
    ],
    [
      ";",
      "</w>"
    ],
    [
      "c",
      "h"
    ],
    [
      "ing",
      "</w>"
    ],
    [
      "r",
      "o"
    ],
    [
      "i",
      "n</w>"
    ],
    [
      "v",
      "e</w>"
    ],
    [
      "a",
      "t</w>"
    ],
    [
      "you",
      "</w>"
    ],
    [
      "s",
      "t"
    ],
    [
      "m",
      "y</w>"
    ],
    [
      "e",
      "n</w>"
    ],
    [
      "e",
      "d</w>"
    ],
    [
      "e",
      "s</w>"
    ],
    [
      "o",
      "r</w>"
    ],
    [
      "m",
      "a"
    ],
    [
      "l",
      "i"
    ],
    [
      "w",
      "</w>"
    ],
    [
      "w",
      "h"
    ],
    [
      "o",
      "n</w>"
    ],
    [
      "k",
      "</w>"
    ],
    [
      "s",
      "t</w>"
    ],
    [
      "th",
      "at</w>"
    ],
    [
      "t",
      "i"
    ],
    [
      "r",
      "i"
    ],
    [
      "?",
      "</w>"
    ],
    [
      "c",
      "e</w>"
    ],
    [
      "th",
      "e"
    ],
    [
      "s",
      "h"
    ],
    [
      "e",
      "l"
    ],
    [
      "no",
      "t</w>"
    ],
    [
      "!",
      "</w>"
    ],
    [
      "i",
      "t</w>"
    ],
    [
      "l",
      "o"
    ],
    [
      "b",
      "u"
    ],
    [
      "e",
      "t</w>"
    ],
    [
      "a",
      "s</w>"
    ],
    [
      "k",
      "e</w>"
    ],
    [
      "a",
      "y</w>"
    ],
    [
      "r",
      "e"
    ],
    [
      "g",
      "h"
    ],
    [
      "s",
      "e</w>"
    ],
    [
      "er",
      "e</w>"
    ],
    [
      "f",
      "or</w>"
    ],
    [
      "th",
      "ou"
    ],
    [
      "c",
      "o"
    ],
    [
      "l",
      "d</w>"
    ],
    [
      "wi",
      "th</w>"
    ],
    [
      "s",
      "i"
    ],
    [
      "l",
      "a"
    ],
    [
      "ch",
      "</w>"
    ],
    [
      "u",
      "s</w>"
    ],
    [
      "b",
      "e</w>"
    ],
    [
      "r",
      "a"
    ],
    [
      "d",
      "i"
    ],
    [
      "you",
      "r</w>"
    ],
    [
      "l",
      "e</w>"
    ],
    [
      "-",
      "</w>"
    ],
    [
      "h",
      "i"
    ],
    [
      "u",
      "r"
    ],
    [
      "c",
      "a"
    ],
    [
      "b",
      "e"
    ],
    [
      "h",
      "e</w>"
    ],
    [
      "h",
      "is</w>"
    ],
    [
      "th",
      "is</w>"
    ],
    [
      "bu",
      "t</w>"
    ],
    [
      "ha",
      "ve</w>"
    ],
    [
      "th",
      "er</w>"
    ],
    [
      "f",
      "a"
    ],
    [
      "thou",
      "</w>"
    ],
    [
      "u",
      "n"
    ],
    [
      "g",
      "o"
    ],
    [
      "f",
      "or"
    ],
    [
      "ou",
      "r</w>"
    ],
    [
      "w",
      "ha"
    ],
    [
      "wha",
      "t</w>"
    ],
    [
      "o",
      "l"
    ],
    [
      "m",
      "i"
    ],
    [
      "hi",
      "m</w>"
    ],
    [
      "r",
      "u"
    ],
    [
      "s",
      "o</w>"
    ],
    [
      "d",
      "s</w>"
    ],
    [
      "p",
      "</w>"
    ],
    [
      "s",
      "e"
    ],
    [
      "t",
      "a"
    ],
    [
      "s",
      "ha"
    ],
    [
      "l",
      "y</w>"
    ],
    [
      "th",
      "y</w>"
    ],
    [
      "w",
      "e"
    ],
    [
      "ar",
      "d</w>"
    ],
    [
      "s",
      "p"
    ],
    [
      "t",
      "er</w>"
    ],
    [
      "f",
      "i"
    ],
    [
      "no",
      "w</w>"
    ],
    [
      "k",
      "ing</w>"
    ],
    [
      "h",
      "o"
    ],
    [
      "wi",
      "ll</w>"
    ],
    [
      "es",
      "s</w>"
    ],
    [
      "a",
      "n</w>"
    ],
    [
      "ou",
      "ld</w>"
    ],
    [
      "s",
      "u"
    ],
    [
      "b",
      "y</w>"
    ],
    [
      "s",
      "a"
    ],
    [
      "r",
      "ea"
    ],
    [
      "ar",
      "e</w>"
    ],
    [
      "l",
      "e"
    ],
    [
      "gh",
      "t</w>"
    ],
    [
      "ea",
      "r</w>"
    ],
    [
      "o",
      "d</w>"
    ],
    [
      "w",
      "e</w>"
    ],
    [
      "l",
      "or"
    ],
    [
      "a",
      "ll</w>"
    ],
    [
      "p",
      "o"
    ],
    [
      "on",
      "e</w>"
    ],
    [
      "n",
      "o</w>"
    ],
    [
      "c",
      "on"
    ],
    [
      "c",
      "i"
    ],
    [
      "d",
      "o"
    ],
    [
      "es",
      "t</w>"
    ],
    [
      "t",
      "y</w>"
    ],
    [
      "e",
      "ar"
    ],
    [
      "a",
      "t"
    ],
    [
      "sha",
      "ll</w>"
    ],
    [
      "i",
      "r</w>"
    ],
    [
      "n",
      "e"
    ],
    [
      "c",
      "k</w>"
    ],
    [
      "q",
      "u"
    ],
    [
      "wh",
      "i"
    ],
    [
      "h",
      "er</w>"
    ],
    [
      "t",
      "s</w>"
    ],
    [
      "d",
      "e"
    ],
    [
      "m",
      "or"
    ],
    [
      "w",
      "or"
    ],
    [
      "d",
      "o</w>"
    ],
    [
      "m",
      "e"
    ],
    [
      "en",
      "t</w>"
    ],
    [
      "i",
      "f</w>"
    ],
    [
      "the",
      "e</w>"
    ],
    [
      "ma",
      "n</w>"
    ],
    [
      "co",
      "m"
    ],
    [
      "r",
      "y</w>"
    ],
    [
      "d",
      "u"
    ],
    [
      "m",
      "o"
    ],
    [
      "b",
      "o"
    ],
    [
      "s",
      "o"
    ],
    [
      "v",
      "i"
    ],
    [
      "co",
      "me</w>"
    ],
    [
      "w",
      "n</w>"
    ],
    [
      "a",
      "l"
    ],
    [
      "g",
      "e</w>"
    ],
    [
      "m",
      "u"
    ],
    [
      "t",
      "o"
    ],
    [
      "p",
      "r"
    ],
    [
      "lor",
      "d</w>"
    ],
    [
      "en",
      "ce</w>"
    ],
    [
      "f",
      "ro"
    ],
    [
      "p",
      "ro"
    ],
    [
      "v",
      "er"
    ],
    [
      "p",
      "a"
    ],
    [
      "go",
      "od</w>"
    ],
    [
      "ou",
      "n"
    ],
    [
      "l",
      "et</w>"
    ],
    [
      "p",
      "e"
    ],
    [
      "m",
      "ar"
    ],
    [
      "s",
      "el"
    ],
    [
      "we",
      "ll</w>"
    ],
    [
      "g",
      "a"
    ],
    [
      "fro",
      "m</w>"
    ],
    [
      "a",
      "m</w>"
    ],
    [
      "si",
      "r</w>"
    ],
    [
      "th",
      "en</w>"
    ],
    [
      "mor",
      "e</w>"
    ],
    [
      "whi",
      "ch</w>"
    ],
    [
      "g",
      "</w>"
    ],
    [
      "w",
      "as</w>"
    ],
    [
      "t",
      "ru"
    ],
    [
      "in",
      "e</w>"
    ],
    [
      "d",
      "y</w>"
    ],
    [
      "en",
      "t"
    ],
    [
      "h",
      "ere</w>"
    ],
    [
      "d",
      "e</w>"
    ],
    [
      "er",
      "s</w>"
    ],
    [
      "b",
      "ro"
    ],
    [
      "sh",
      "e</w>"
    ],
    [
      "r",
      "an"
    ],
    [
      "v",
      "er</w>"
    ],
    [
      "the",
      "y</w>"
    ],
    [
      "w",
      "ould</w>"
    ],
    [
      "g",
      "i"
    ],
    [
      "t",
      "e"
    ],
    [
      "b",
      "a"
    ],
    [
      "ou",
      "s</w>"
    ],
    [
      "d",
      "ea"
    ],
    [
      "ho",
      "w</w>"
    ],
    [
      "p",
      "ar"
    ],
    [
      "b",
      "le</w>"
    ],
    [
      "b",
      "i"
    ],
    [
      "l",
      "ea"
    ],
    [
      "h",
      "ea"
    ],
    [
      "s",
      "on</w>"
    ],
    [
      "sel",
      "f</w>"
    ],
    [
      "f",
      "u"
    ],
    [
      "w",
      "ard</w>"
    ],
    [
      "ti",
      "on</w>"
    ],
    [
      "th",
      "an</w>"
    ],
    [
      "the",
      "ir</w>"
    ],
    [
      "the",
      "m</w>"
    ],
    [
      "du",
      "ke</w>"
    ],
    [
      "s",
      "ay</w>"
    ],
    [
      "fi",
      "r"
    ],
    [
      "t",
      "e</w>"
    ],
    [
      "u",
      "p"
    ],
    [
      "gh",
      "</w>"
    ],
    [
      "w",
      "ere</w>"
    ],
    [
      "ha",
      "th</w>"
    ],
    [
      "g",
      "u"
    ],
    [
      "e",
      "d"
    ],
    [
      "w",
      "ar"
    ],
    [
      "ri",
      "ch"
    ],
    [
      "g",
      "o</w>"
    ],
    [
      "n",
      "i"
    ],
    [
      "f",
      "e</w>"
    ],
    [
      "li",
      "ke</w>"
    ],
    [
      "wh",
      "en</w>"
    ],
    [
      "th",
      "ere</w>"
    ],
    [
      "sh",
      "</w>"
    ],
    [
      "lo",
      "ve</w>"
    ],
    [
      "a",
      "u"
    ],
    [
      "l",
      "u"
    ],
    [
      "en",
      "d</w>"
    ],
    [
      "e",
      "e"
    ],
    [
      "w",
      "a"
    ],
    [
      "ch",
      "i"
    ],
    [
      "ti",
      "o</w>"
    ],
    [
      "ma",
      "y</w>"
    ],
    [
      "ou",
      "t</w>"
    ],
    [
      "p",
      "er"
    ],
    [
      "m",
      "b"
    ],
    [
      "up",
      "on</w>"
    ],
    [
      "for",
      "e</w>"
    ],
    [
      "i",
      "us</w>"
    ],
    [
      "ma",
      "ke</w>"
    ],
    [
      "f",
      "ri"
    ],
    [
      "g",
      "ra"
    ],
    [
      "ur",
      "e</w>"
    ],
    [
      "c",
      "k"
    ],
    [
      "rich",
      "ard</w>"
    ],
    [
      "y",
      "et</w>"
    ],
    [
      "qu",
      "e"
    ],
    [
      "er",
      "e"
    ],
    [
      "an",
      "y</w>"
    ],
    [
      "c",
      "en"
    ],
    [
      "que",
      "en</w>"
    ],
    [
      "v",
      "es</w>"
    ],
    [
      "k",
      "now</w>"
    ],
    [
      "lo",
      "o"
    ],
    [
      "ou",
      "r"
    ],
    [
      "v",
      "en</w>"
    ],
    [
      "a",
      "l</w>"
    ],
    [
      "c",
      "or"
    ],
    [
      "t",
      "ed</w>"
    ],
    [
      "mu",
      "st</w>"
    ],
    [
      "sh",
      "ould</w>"
    ],
    [
      "d",
      "er</w>"
    ],
    [
      "j",
      "u"
    ],
    [
      "c",
      "u"
    ],
    [
      "t",
      "is</w>"
    ],
    [
      "fir",
      "st</w>"
    ],
    [
      "w",
      "s</w>"
    ],
    [
      "m",
      "en</w>"
    ],
    [
      "an",
      "g"
    ],
    [
      "wh",
      "y</w>"
    ],
    [
      "w",
      "ay</w>"
    ],
    [
      "o",
      "f"
    ],
    [
      "l",
      "ou"
    ],
    [
      "wh",
      "ere</w>"
    ],
    [
      "p",
      "u"
    ],
    [
      "ha",
      "d</w>"
    ],
    [
      "p",
      "i"
    ],
    [
      "h",
      "ear"
    ],
    [
      "w",
      "o"
    ],
    [
      "a",
      "ga"
    ],
    [
      "fa",
      "ther</w>"
    ],
    [
      "st",
      "i"
    ],
    [
      "ed",
      "ward</w>"
    ],
    [
      "di",
      "d</w>"
    ],
    [
      "in",
      "d</w>"
    ],
    [
      "n",
      "a"
    ],
    [
      "an",
      "t</w>"
    ],
    [
      "sp",
      "ea"
    ],
    [
      "v",
      "o"
    ],
    [
      "cen",
      "tio</w>"
    ],
    [
      "s",
      "er"
    ],
    [
      "se",
      "e</w>"
    ],
    [
      "so",
      "me</w>"
    ],
    [
      "m",
      "er"
    ],
    [
      "c",
      "es"
    ],
    [
      "t",
      "t"
    ],
    [
      "dea",
      "th</w>"
    ],
    [
      "h",
      "en"
    ],
    [
      "f",
      "e"
    ],
    [
      "gi",
      "ve</w>"
    ],
    [
      "ta",
      "ke</w>"
    ],
    [
      "l",
      "l"
    ],
    [
      "g",
      "ent"
    ],
    [
      "th",
      "in"
    ],
    [
      "fu",
      "l</w>"
    ],
    [
      "i",
      "r"
    ],
    [
      "e",
      "x"
    ],
    [
      "ing",
      "s</w>"
    ],
    [
      "to",
      "o</w>"
    ],
    [
      "wh",
      "o</w>"
    ],
    [
      "th",
      "ing</w>"
    ],
    [
      "o",
      "se</w>"
    ],
    [
      "spea",
      "k</w>"
    ],
    [
      "m",
      "en"
    ],
    [
      "hen",
      "ry</w>"
    ],
    [
      "s",
      "ed</w>"
    ],
    [
      "m",
      "ine</w>"
    ],
    [
      "m",
      "p"
    ],
    [
      "t",
      "ter</w>"
    ],
    [
      "es",
      "e</w>"
    ],
    [
      "ti",
      "me</w>"
    ],
    [
      "st",
      "er</w>"
    ],
    [
      "y",
      "or"
    ],
    [
      "s",
      "s</w>"
    ],
    [
      "th",
      "ese</w>"
    ],
    [
      "d",
      "es"
    ],
    [
      "yor",
      "k</w>"
    ],
    [
      "on",
      "g</w>"
    ],
    [
      "ro",
      "me"
    ],
    [
      "rome",
      "o</w>"
    ],
    [
      "ver",
      "y</w>"
    ],
    [
      "k",
      "s</w>"
    ],
    [
      "u",
      "p</w>"
    ],
    [
      "h",
      "on"
    ],
    [
      "mo",
      "st</w>"
    ],
    [
      "h",
      "e"
    ],
    [
      "at",
      "e</w>"
    ],
    [
      "su",
      "ch</w>"
    ],
    [
      "go",
      "d</w>"
    ],
    [
      "in",
      "ce</w>"
    ],
    [
      "c",
      "an"
    ],
    [
      "a",
      "c"
    ],
    [
      "ca",
      "n</w>"
    ],
    [
      "c",
      "e"
    ],
    [
      "b",
      "lo"
    ],
    [
      "ces",
      "ter</w>"
    ],
    [
      "w",
      "er</w>"
    ],
    [
      "d",
      "ay</w>"
    ],
    [
      "v",
      "ed</w>"
    ],
    [
      "m",
      "on"
    ],
    [
      "g",
      "lou"
    ],
    [
      "g",
      "re"
    ],
    [
      "te",
      "ll</w>"
    ],
    [
      "glou",
      "cester</w>"
    ],
    [
      "j",
      "o"
    ],
    [
      "el",
      "l"
    ],
    [
      "t",
      "en"
    ],
    [
      "ro",
      "w</w>"
    ],
    [
      "la",
      "dy</w>"
    ],
    [
      "p",
      "ri"
    ],
    [
      "o",
      "p"
    ],
    [
      "e",
      "y"
    ],
    [
      "l",
      "t</w>"
    ],
    [
      "v",
      "in"
    ],
    [
      "f",
      "o"
    ],
    [
      "p",
      "p"
    ],
    [
      "n",
      "e</w>"
    ],
    [
      "n",
      "ess</w>"
    ],
    [
      "c",
      "oun"
    ],
    [
      "oun",
      "d</w>"
    ],
    [
      "thin",
      "k</w>"
    ],
    [
      "lo",
      "w</w>"
    ],
    [
      "l",
      "and</w>"
    ],
    [
      "en",
      "g"
    ],
    [
      "hear",
      "t</w>"
    ],
    [
      "no",
      "r</w>"
    ],
    [
      "bro",
      "ther</w>"
    ],
    [
      "r",
      "es"
    ],
    [
      "li",
      "fe</w>"
    ],
    [
      "i",
      "i</w>"
    ],
    [
      "i",
      "d</w>"
    ],
    [
      "wi",
      "ck</w>"
    ],
    [
      "h",
      "ear</w>"
    ],
    [
      "vin",
      "centio</w>"
    ],
    [
      "ma",
      "de</w>"
    ],
    [
      "d",
      "er"
    ],
    [
      "an",
      "ce</w>"
    ],
    [
      "u",
      "se</w>"
    ],
    [
      "ar",
      "t</w>"
    ],
    [
      "war",
      "wick</w>"
    ],
    [
      "a",
      "f"
    ],
    [
      "p",
      "la"
    ],
    [
      "ear",
      "s</w>"
    ],
    [
      "o",
      "ther</w>"
    ],
    [
      "m",
      "s</w>"
    ],
    [
      "c",
      "l"
    ],
    [
      "t",
      "u"
    ],
    [
      "m",
      "ent</w>"
    ],
    [
      "b",
      "r"
    ],
    [
      "th",
      "ere"
    ],
    [
      "y",
      "self</w>"
    ],
    [
      "loo",
      "k</w>"
    ],
    [
      "mu",
      "ch</w>"
    ],
    [
      "l",
      "ess</w>"
    ],
    [
      "s",
      "we"
    ],
    [
      "gu",
      "e</w>"
    ],
    [
      "h",
      "or"
    ],
    [
      "b",
      "rea"
    ],
    [
      "sh",
      "o"
    ],
    [
      "ne",
      "ver</w>"
    ],
    [
      "g",
      "rea"
    ],
    [
      "c",
      "t</w>"
    ],
    [
      "st",
      "r"
    ],
    [
      "a",
      "b"
    ],
    [
      "h",
      "er"
    ],
    [
      "d",
      "one</w>"
    ],
    [
      "y",
      "s</w>"
    ],
    [
      "in",
      "ius</w>"
    ],
    [
      "ra",
      "i"
    ],
    [
      "p",
      "re"
    ],
    [
      "di",
      "s"
    ],
    [
      "do",
      "th</w>"
    ],
    [
      "ni",
      "ght</w>"
    ],
    [
      "tru",
      "e</w>"
    ],
    [
      "a",
      "d"
    ],
    [
      "cor",
      "i"
    ],
    [
      "cori",
      "ol"
    ],
    [
      "h",
      "u"
    ],
    [
      "c",
      "ro"
    ],
    [
      "an",
      "ds</w>"
    ],
    [
      "t",
      "es</w>"
    ],
    [
      "be",
      "fore</w>"
    ],
    [
      "el",
      "y</w>"
    ],
    [
      "g",
      "ar"
    ],
    [
      "o",
      "m</w>"
    ],
    [
      "on",
      "s</w>"
    ],
    [
      "t",
      "w"
    ],
    [
      "d",
      "r"
    ],
    [
      "t",
      "er"
    ],
    [
      "pe",
      "tru"
    ],
    [
      "c",
      "es</w>"
    ],
    [
      "can",
      "not</w>"
    ],
    [
      "d",
      "a"
    ],
    [
      "th",
      "us</w>"
    ],
    [
      "blo",
      "od</w>"
    ],
    [
      "bo",
      "th</w>"
    ],
    [
      "petru",
      "chi"
    ],
    [
      "petruchi",
      "o</w>"
    ],
    [
      "p",
      "lea"
    ],
    [
      "ur",
      "se</w>"
    ],
    [
      "a",
      "r</w>"
    ],
    [
      "gent",
      "le"
    ],
    [
      "be",
      "ing</w>"
    ],
    [
      "s",
      "ou"
    ],
    [
      "a",
      "way</w>"
    ],
    [
      "d",
      "ed</w>"
    ],
    [
      "na",
      "me</w>"
    ],
    [
      "in",
      "a</w>"
    ],
    [
      "f",
      "ol"
    ],
    [
      "ca",
      "ll</w>"
    ],
    [
      "fa",
      "ir</w>"
    ],
    [
      "no",
      "ble</w>"
    ],
    [
      "h",
      "</w>"
    ],
    [
      "wor",
      "d</w>"
    ],
    [
      "e",
      "l</w>"
    ],
    [
      "p",
      "e</w>"
    ],
    [
      "coriol",
      "an"
    ],
    [
      "coriolan",
      "us</w>"
    ],
    [
      "in",
      "st</w>"
    ],
    [
      "be",
      "en</w>"
    ],
    [
      "e",
      "p</w>"
    ],
    [
      "k",
      "i"
    ],
    [
      "h",
      "and</w>"
    ],
    [
      "t",
      "on"
    ],
    [
      "ju",
      "li"
    ],
    [
      "o",
      "wn</w>"
    ],
    [
      "aga",
      "in</w>"
    ],
    [
      "men",
      "en"
    ],
    [
      "menen",
      "ius</w>"
    ],
    [
      "thou",
      "gh</w>"
    ],
    [
      "pr",
      "ay</w>"
    ],
    [
      "f",
      "t</w>"
    ],
    [
      "se",
      "e"
    ],
    [
      "pr",
      "es"
    ],
    [
      "hon",
      "our</w>"
    ],
    [
      "t",
      "ur"
    ],
    [
      "i",
      "g"
    ],
    [
      "e",
      "p"
    ],
    [
      "for",
      "d</w>"
    ],
    [
      "swe",
      "et</w>"
    ],
    [
      "n",
      "or"
    ],
    [
      "juli",
      "et</w>"
    ],
    [
      "se",
      "con"
    ],
    [
      "ha",
      "st"
    ],
    [
      "k",
      "no"
    ],
    [
      "s",
      "et</w>"
    ],
    [
      "v",
      "ing</w>"
    ],
    [
      "en",
      "ds</w>"
    ],
    [
      "i",
      "o</w>"
    ],
    [
      "secon",
      "d</w>"
    ],
    [
      "m",
      "yself</w>"
    ],
    [
      "mi",
      "o</w>"
    ],
    [
      "grea",
      "t</w>"
    ],
    [
      "d",
      "ly</w>"
    ],
    [
      "bro",
      "ke</w>"
    ],
    [
      "t",
      "ing</w>"
    ],
    [
      "li",
      "ve</w>"
    ],
    [
      "lea",
      "ve</w>"
    ],
    [
      "f",
      "ear</w>"
    ],
    [
      "com",
      "es</w>"
    ],
    [
      "h",
      "ou"
    ],
    [
      "c",
      "ar"
    ],
    [
      "ang",
      "el"
    ],
    [
      "b",
      "ea"
    ],
    [
      "there",
      "fore</w>"
    ],
    [
      "c",
      "la"
    ],
    [
      "b",
      "ol"
    ],
    [
      "aga",
      "inst</w>"
    ],
    [
      "st",
      "and</w>"
    ],
    [
      "s",
      "ure</w>"
    ],
    [
      "gh",
      "ter</w>"
    ],
    [
      "pr",
      "ince</w>"
    ],
    [
      "v",
      "en"
    ],
    [
      "h",
      "ar"
    ],
    [
      "po",
      "or</w>"
    ],
    [
      "h",
      "el"
    ],
    [
      "b",
      "ear</w>"
    ],
    [
      "l",
      "ay</w>"
    ],
    [
      "i",
      "sa"
    ],
    [
      "t",
      "or"
    ],
    [
      "e",
      "ver</w>"
    ],
    [
      "c",
      "lo"
    ],
    [
      "do",
      "wn</w>"
    ],
    [
      "b",
      "l"
    ],
    [
      "t",
      "ri"
    ],
    [
      "si",
      "c"
    ],
    [
      "wor",
      "ld</w>"
    ],
    [
      "o",
      "ld</w>"
    ],
    [
      "wi",
      "fe</w>"
    ],
    [
      "angel",
      "o</w>"
    ],
    [
      "p",
      "ea"
    ],
    [
      "gra",
      "ce</w>"
    ],
    [
      "k",
      "ee"
    ],
    [
      "ri",
      "e"
    ],
    [
      "ou",
      "gh</w>"
    ],
    [
      "s",
      "es</w>"
    ],
    [
      "ha",
      "st</w>"
    ],
    [
      "d",
      "ing</w>"
    ],
    [
      "a",
      "s"
    ],
    [
      "i",
      "l</w>"
    ],
    [
      "e",
      "ven</w>"
    ],
    [
      "hea",
      "ven</w>"
    ],
    [
      "s",
      "or"
    ],
    [
      "ser",
      "v"
    ],
    [
      "n",
      "ay</w>"
    ],
    [
      "st",
      "ay</w>"
    ],
    [
      "com",
      "m"
    ],
    [
      "k",
      "es</w>"
    ],
    [
      "mo",
      "ther</w>"
    ],
    [
      "cl",
      "ar"
    ],
    [
      "con",
      "t"
    ],
    [
      "m",
      "ea"
    ],
    [
      "f",
      "ar"
    ],
    [
      "wi",
      "th"
    ],
    [
      "clar",
      "ence</w>"
    ],
    [
      "ti",
      "ll</w>"
    ],
    [
      "b",
      "es"
    ],
    [
      "s",
      "ea"
    ],
    [
      "ca",
      "use</w>"
    ],
    [
      "ey",
      "es</w>"
    ],
    [
      "hea",
      "d</w>"
    ],
    [
      "in",
      "t</w>"
    ],
    [
      "d",
      "au"
    ],
    [
      "n",
      "urse</w>"
    ],
    [
      "ci",
      "ti"
    ],
    [
      "ho",
      "ld</w>"
    ],
    [
      "t",
      "un"
    ],
    [
      "c",
      "ur"
    ],
    [
      "sh",
      "i"
    ],
    [
      "an",
      "i"
    ],
    [
      "ma",
      "ster</w>"
    ],
    [
      "d",
      "on</w>"
    ],
    [
      "c",
      "ou"
    ],
    [
      "citi",
      "z"
    ],
    [
      "li",
      "e"
    ],
    [
      "hou",
      "se</w>"
    ],
    [
      "m",
      "any</w>"
    ],
    [
      "bu",
      "ck"
    ],
    [
      "ha",
      "m</w>"
    ],
    [
      "t",
      "ran"
    ],
    [
      "l",
      "s</w>"
    ],
    [
      "s",
      "in</w>"
    ],
    [
      "s",
      "en"
    ],
    [
      "you",
      "r"
    ],
    [
      "g",
      "e"
    ],
    [
      "dea",
      "d</w>"
    ],
    [
      "di",
      "e</w>"
    ],
    [
      "l",
      "an"
    ],
    [
      "bol",
      "ing"
    ],
    [
      "boling",
      "broke</w>"
    ],
    [
      "d",
      "st</w>"
    ],
    [
      "h",
      "ol"
    ],
    [
      "no",
      "thing</w>"
    ],
    [
      "i",
      "ii</w>"
    ],
    [
      "wh",
      "ose</w>"
    ],
    [
      "re",
      "e</w>"
    ],
    [
      "s",
      "ur"
    ],
    [
      "c",
      "our"
    ],
    [
      "b",
      "ra"
    ],
    [
      "b",
      "ell"
    ],
    [
      "tt",
      "le</w>"
    ],
    [
      "p",
      "s</w>"
    ],
    [
      "t",
      "y"
    ],
    [
      "fri",
      "ends</w>"
    ],
    [
      "l",
      "ed</w>"
    ],
    [
      "sp",
      "i"
    ],
    [
      "isa",
      "bell"
    ],
    [
      "isabell",
      "a</w>"
    ],
    [
      "in",
      "s</w>"
    ],
    [
      "m",
      "ur"
    ],
    [
      "ing",
      "ham</w>"
    ],
    [
      "fri",
      "ar</w>"
    ],
    [
      "le",
      "on"
    ],
    [
      "leon",
      "tes</w>"
    ],
    [
      "de",
      "ed</w>"
    ],
    [
      "t",
      "ch</w>"
    ],
    [
      "pea",
      "ce</w>"
    ],
    [
      "a",
      "ge</w>"
    ],
    [
      "buck",
      "ingham</w>"
    ],
    [
      "a",
      "th"
    ],
    [
      "an",
      "s</w>"
    ],
    [
      "un",
      "to</w>"
    ],
    [
      "be",
      "tter</w>"
    ],
    [
      "dau",
      "ghter</w>"
    ],
    [
      "c",
      "li"
    ],
    [
      "ci",
      "o</w>"
    ],
    [
      "g",
      "one</w>"
    ],
    [
      "fo",
      "o"
    ],
    [
      "th",
      "ose</w>"
    ],
    [
      "ri",
      "ght</w>"
    ],
    [
      "ch",
      "ar"
    ],
    [
      "sti",
      "ll</w>"
    ],
    [
      "c",
      "y</w>"
    ],
    [
      "th",
      "an"
    ],
    [
      "our",
      "s</w>"
    ],
    [
      "sou",
      "l</w>"
    ],
    [
      "of",
      "f</w>"
    ],
    [
      "wor",
      "ds</w>"
    ],
    [
      "d",
      "am</w>"
    ],
    [
      "par",
      "t</w>"
    ],
    [
      "c",
      "ha"
    ],
    [
      "qu",
      "i"
    ],
    [
      "l",
      "es</w>"
    ],
    [
      "you",
      "n"
    ],
    [
      "ci",
      "ous</w>"
    ],
    [
      "h",
      "ence</w>"
    ],
    [
      "tw",
      "o</w>"
    ],
    [
      "tran",
      "io</w>"
    ],
    [
      "mar",
      "ci"
    ],
    [
      "s",
      "la"
    ],
    [
      "si",
      "on</w>"
    ],
    [
      "s",
      "w"
    ],
    [
      "marci",
      "us</w>"
    ],
    [
      "c",
      "ould</w>"
    ],
    [
      "l",
      "ong</w>"
    ],
    [
      "v",
      "ol"
    ],
    [
      "gentle",
      "man</w>"
    ],
    [
      "w",
      "r"
    ],
    [
      "s",
      "le"
    ],
    [
      "lu",
      "cio</w>"
    ],
    [
      "r",
      "est</w>"
    ],
    [
      "i",
      "ther</w>"
    ],
    [
      "s",
      "ince</w>"
    ],
    [
      "ne",
      "ws</w>"
    ],
    [
      "w",
      "el"
    ],
    [
      "tur",
      "n</w>"
    ],
    [
      "i",
      "v"
    ],
    [
      "li",
      "ttle</w>"
    ],
    [
      "ru",
      "t"
    ],
    [
      "sic",
      "inius</w>"
    ],
    [
      "e",
      "li"
    ],
    [
      "u",
      "l"
    ],
    [
      "p",
      "ur"
    ],
    [
      "bi",
      "d</w>"
    ],
    [
      "cro",
      "wn</w>"
    ],
    [
      "mi",
      "ll"
    ],
    [
      "mar",
      "gar"
    ],
    [
      "margar",
      "et</w>"
    ],
    [
      "lor",
      "ds</w>"
    ],
    [
      "ca",
      "pu"
    ],
    [
      "s",
      "ol"
    ],
    [
      "on",
      "ce</w>"
    ],
    [
      "pu",
      "t</w>"
    ],
    [
      "g",
      "rie"
    ],
    [
      "vi",
      "r"
    ],
    [
      "wh",
      "om</w>"
    ],
    [
      "t",
      "or</w>"
    ],
    [
      "u",
      "mb"
    ],
    [
      "b",
      "al"
    ],
    [
      "hi",
      "m"
    ],
    [
      "him",
      "self</w>"
    ],
    [
      "f",
      "el"
    ],
    [
      "m",
      "es</w>"
    ],
    [
      "st",
      "o"
    ],
    [
      "cli",
      "f"
    ],
    [
      "ca",
      "mill"
    ],
    [
      "camill",
      "o</w>"
    ],
    [
      "a",
      "p"
    ],
    [
      "su",
      "b"
    ],
    [
      "fa",
      "ce</w>"
    ],
    [
      "g",
      "ro"
    ],
    [
      "ig",
      "n</w>"
    ],
    [
      "st",
      "a"
    ],
    [
      "k",
      "ne"
    ],
    [
      "b",
      "en"
    ],
    [
      "s",
      "ing</w>"
    ],
    [
      "th",
      "ine</w>"
    ],
    [
      "capu",
      "let</w>"
    ],
    [
      "el",
      "se</w>"
    ],
    [
      "a",
      "be"
    ],
    [
      "iv",
      "</w>"
    ],
    [
      "c",
      "ed</w>"
    ],
    [
      "eli",
      "z"
    ],
    [
      "eliz",
      "abe"
    ],
    [
      "elizabe",
      "th</w>"
    ],
    [
      "ton",
      "gue</w>"
    ],
    [
      "n",
      "s</w>"
    ],
    [
      "no",
      "ne</w>"
    ],
    [
      "p",
      "ti"
    ],
    [
      "ar",
      "ina</w>"
    ],
    [
      "whi",
      "le</w>"
    ],
    [
      "t",
      "ly</w>"
    ],
    [
      "par",
      "don</w>"
    ],
    [
      "tun",
      "e</w>"
    ],
    [
      "ri",
      "ed</w>"
    ],
    [
      "ca",
      "l"
    ],
    [
      "k",
      "ath"
    ],
    [
      "kath",
      "arina</w>"
    ],
    [
      "mi",
      "ght</w>"
    ],
    [
      "d",
      "ear</w>"
    ],
    [
      "r",
      "e</w>"
    ],
    [
      "g",
      "et</w>"
    ],
    [
      "n",
      "ing</w>"
    ],
    [
      "gent",
      "le</w>"
    ],
    [
      "m",
      "pe"
    ],
    [
      "youn",
      "g</w>"
    ],
    [
      "or",
      "t</w>"
    ],
    [
      "sho",
      "w</w>"
    ],
    [
      "ear",
      "th</w>"
    ],
    [
      "for",
      "th</w>"
    ],
    [
      "po",
      "wer</w>"
    ],
    [
      "b",
      "est</w>"
    ],
    [
      "com",
      "p"
    ],
    [
      "hu",
      "s"
    ],
    [
      "ma",
      "dam</w>"
    ],
    [
      "pe",
      "op"
    ],
    [
      "s",
      "in"
    ],
    [
      "ba",
      "ck</w>"
    ],
    [
      "kee",
      "p</w>"
    ],
    [
      "d",
      "ou"
    ],
    [
      "hus",
      "b"
    ],
    [
      "m",
      "in"
    ],
    [
      "d",
      "ra"
    ],
    [
      "pro",
      "vo"
    ],
    [
      "peop",
      "le</w>"
    ],
    [
      "m",
      "an"
    ],
    [
      "t",
      "en</w>"
    ],
    [
      "ca",
      "me</w>"
    ],
    [
      "far",
      "e"
    ],
    [
      "st",
      "a</w>"
    ],
    [
      "citiz",
      "en</w>"
    ],
    [
      "n",
      "at"
    ],
    [
      "ce",
      "i"
    ],
    [
      "th",
      "r"
    ],
    [
      "un",
      "t</w>"
    ],
    [
      "b",
      "or"
    ],
    [
      "thou",
      "ght</w>"
    ],
    [
      "br",
      "ing</w>"
    ],
    [
      "fare",
      "well</w>"
    ],
    [
      "li",
      "ght</w>"
    ],
    [
      "d",
      "rea"
    ],
    [
      "ee",
      "ch</w>"
    ],
    [
      "ou",
      "ght</w>"
    ],
    [
      "o",
      "k</w>"
    ],
    [
      "sp",
      "er"
    ],
    [
      "be",
      "g"
    ],
    [
      "v",
      "i</w>"
    ],
    [
      "lu",
      "centio</w>"
    ],
    [
      "ba",
      "pti"
    ],
    [
      "pla",
      "ce</w>"
    ],
    [
      "d",
      "en</w>"
    ],
    [
      "ho",
      "pe</w>"
    ],
    [
      "ro",
      "y"
    ],
    [
      "g",
      "ru"
    ],
    [
      "g",
      "er</w>"
    ],
    [
      "re",
      "p"
    ],
    [
      "hast",
      "ings</w>"
    ],
    [
      "bapti",
      "sta</w>"
    ],
    [
      "hor",
      "ten"
    ],
    [
      "horten",
      "si"
    ],
    [
      "el",
      "d</w>"
    ],
    [
      "l",
      "ing</w>"
    ],
    [
      "c",
      "tion</w>"
    ],
    [
      "f",
      "ind</w>"
    ],
    [
      "e",
      "very</w>"
    ],
    [
      "sa",
      "id</w>"
    ],
    [
      "ho",
      "me</w>"
    ],
    [
      "husb",
      "and</w>"
    ],
    [
      "ran",
      "t</w>"
    ],
    [
      "li",
      "es</w>"
    ],
    [
      "b",
      "ani"
    ],
    [
      "ha",
      "pp"
    ],
    [
      "hortensi",
      "o</w>"
    ],
    [
      "wh",
      "ere"
    ],
    [
      "bo",
      "y</w>"
    ],
    [
      "h",
      "ands</w>"
    ],
    [
      "mor",
      "row</w>"
    ],
    [
      "str",
      "ess</w>"
    ],
    [
      "st",
      "ri"
    ],
    [
      "c",
      "ra"
    ],
    [
      "gh",
      "ts</w>"
    ],
    [
      "b",
      "rut"
    ],
    [
      "brut",
      "us</w>"
    ],
    [
      "v",
      "a"
    ],
    [
      "wel",
      "come</w>"
    ],
    [
      "fa",
      "l"
    ],
    [
      "in",
      "to</w>"
    ],
    [
      "cou",
      "sin</w>"
    ],
    [
      "he",
      "ard</w>"
    ],
    [
      "re",
      "me"
    ],
    [
      "ro",
      "me</w>"
    ],
    [
      "b",
      "ed</w>"
    ],
    [
      "d",
      "en"
    ],
    [
      "do",
      "st</w>"
    ],
    [
      "th",
      "ir"
    ],
    [
      "t",
      "r"
    ],
    [
      "ab",
      "out</w>"
    ],
    [
      "ta",
      "in</w>"
    ],
    [
      "t",
      "ears</w>"
    ],
    [
      "si",
      "g"
    ],
    [
      "k",
      "in"
    ],
    [
      "plea",
      "se</w>"
    ],
    [
      "a",
      "pp"
    ],
    [
      "g",
      "en"
    ],
    [
      "sp",
      "o"
    ],
    [
      "mi",
      "stress</w>"
    ],
    [
      "ta",
      "l"
    ],
    [
      "j",
      "e"
    ],
    [
      "hel",
      "p</w>"
    ],
    [
      "con",
      "f"
    ],
    [
      "st",
      "ru"
    ],
    [
      "w",
      "ea"
    ],
    [
      "com",
      "for"
    ],
    [
      "jo",
      "y</w>"
    ],
    [
      "af",
      "ter</w>"
    ],
    [
      "mur",
      "der"
    ],
    [
      "provo",
      "st</w>"
    ],
    [
      "t",
      "le</w>"
    ],
    [
      "wo",
      "man</w>"
    ],
    [
      "fu",
      "ll</w>"
    ],
    [
      "an",
      "c"
    ],
    [
      "in",
      "deed</w>"
    ],
    [
      "mb",
      "er</w>"
    ],
    [
      "ma",
      "kes</w>"
    ],
    [
      "s",
      "ent</w>"
    ],
    [
      "bu",
      "r"
    ],
    [
      "mea",
      "n</w>"
    ],
    [
      "t",
      "es"
    ],
    [
      "en",
      "e"
    ],
    [
      "t",
      "ry</w>"
    ],
    [
      "of",
      "f"
    ],
    [
      "m",
      "ind</w>"
    ],
    [
      "i",
      "m"
    ],
    [
      "th",
      "umb"
    ],
    [
      "gru",
      "mio</w>"
    ],
    [
      "an",
      "s"
    ],
    [
      "ans",
      "wer</w>"
    ],
    [
      "ch",
      "o"
    ],
    [
      "com",
      "inius</w>"
    ],
    [
      "i",
      "s"
    ],
    [
      "fa",
      "i"
    ],
    [
      "wi",
      "lt</w>"
    ],
    [
      "mar",
      "ry</w>"
    ],
    [
      "u",
      "di"
    ],
    [
      "es",
      "cal"
    ],
    [
      "escal",
      "us</w>"
    ],
    [
      "ki",
      "ll</w>"
    ],
    [
      "ha",
      "s</w>"
    ],
    [
      "sel",
      "ves</w>"
    ],
    [
      "st",
      "ate</w>"
    ],
    [
      "la",
      "ck</w>"
    ],
    [
      "of",
      "fi"
    ],
    [
      "dou",
      "b"
    ],
    [
      "t",
      "ch"
    ],
    [
      "v",
      "y</w>"
    ],
    [
      "clif",
      "ford</w>"
    ],
    [
      "po",
      "mpe"
    ],
    [
      "pompe",
      "y</w>"
    ],
    [
      "rea",
      "dy</w>"
    ],
    [
      "thou",
      "s"
    ],
    [
      "t",
      "ra"
    ],
    [
      "po",
      "se</w>"
    ],
    [
      "g",
      "s</w>"
    ],
    [
      "fri",
      "end</w>"
    ],
    [
      "es",
      "s"
    ],
    [
      "shi",
      "p</w>"
    ],
    [
      "for",
      "tune</w>"
    ],
    [
      "pro",
      "sper"
    ],
    [
      "gra",
      "cious</w>"
    ],
    [
      "serv",
      "ant</w>"
    ],
    [
      "sha",
      "me</w>"
    ],
    [
      "po",
      "li"
    ],
    [
      "b",
      "ar"
    ],
    [
      "p",
      "ra"
    ],
    [
      "fi",
      "di"
    ],
    [
      "so",
      "me"
    ],
    [
      "fel",
      "low</w>"
    ],
    [
      "fa",
      "ll</w>"
    ],
    [
      "with",
      "in</w>"
    ],
    [
      "vo",
      "i"
    ],
    [
      "mer",
      "cu"
    ],
    [
      "mercu",
      "tio</w>"
    ],
    [
      "gre",
      "mio</w>"
    ],
    [
      "on",
      "ly</w>"
    ],
    [
      "ey",
      "e</w>"
    ],
    [
      "an",
      "other</w>"
    ],
    [
      "g",
      "ed</w>"
    ],
    [
      "la",
      "st</w>"
    ],
    [
      "pro",
      "ve</w>"
    ],
    [
      "d",
      "ar"
    ],
    [
      "sp",
      "e"
    ],
    [
      "st",
      "an"
    ],
    [
      "w",
      "at"
    ],
    [
      "vi",
      "ce</w>"
    ],
    [
      "bo",
      "dy</w>"
    ],
    [
      "au",
      "fidi"
    ],
    [
      "hi",
      "ther</w>"
    ],
    [
      "fa",
      "r</w>"
    ],
    [
      "ir",
      "e</w>"
    ],
    [
      "k",
      "en</w>"
    ],
    [
      "do",
      "m</w>"
    ],
    [
      "te",
      "mp"
    ],
    [
      "happ",
      "y</w>"
    ],
    [
      "sor",
      "row</w>"
    ],
    [
      "nor",
      "thumb"
    ],
    [
      "northumb",
      "er"
    ],
    [
      "cla",
      "udi"
    ],
    [
      "claudi",
      "o</w>"
    ],
    [
      "thous",
      "and</w>"
    ],
    [
      "pa",
      "ti"
    ],
    [
      "s",
      "it</w>"
    ],
    [
      "aufidi",
      "us</w>"
    ],
    [
      "th",
      "ree</w>"
    ],
    [
      "chi",
      "ld</w>"
    ],
    [
      "li",
      "e</w>"
    ],
    [
      "l",
      "la"
    ],
    [
      "x",
      "t</w>"
    ],
    [
      "northumber",
      "land</w>"
    ],
    [
      "ra",
      "ther</w>"
    ],
    [
      "i",
      "ty</w>"
    ],
    [
      "t",
      "rea"
    ],
    [
      "roy",
      "al</w>"
    ],
    [
      "du",
      "ch"
    ],
    [
      "duch",
      "ess</w>"
    ],
    [
      "e",
      "ds</w>"
    ],
    [
      "me",
      "et</w>"
    ],
    [
      "thir",
      "d</w>"
    ],
    [
      "gu",
      "i"
    ],
    [
      "i",
      "z"
    ],
    [
      "pa",
      "ul"
    ],
    [
      "paul",
      "ina</w>"
    ],
    [
      "un",
      "der</w>"
    ],
    [
      "p",
      "t</w>"
    ],
    [
      "ea",
      "ch</w>"
    ],
    [
      "sw",
      "ear</w>"
    ],
    [
      "c",
      "le</w>"
    ],
    [
      "t",
      "rai"
    ],
    [
      "l",
      "on"
    ],
    [
      "f",
      "f"
    ],
    [
      "vir",
      "tu"
    ],
    [
      "b",
      "el"
    ],
    [
      "c",
      "</w>"
    ],
    [
      "lo",
      "w"
    ],
    [
      "wa",
      "r</w>"
    ],
    [
      "ti",
      "mes</w>"
    ],
    [
      "mon",
      "ta"
    ],
    [
      "ty",
      "bal"
    ],
    [
      "f",
      "ur"
    ],
    [
      "des",
      "er"
    ],
    [
      "comfor",
      "t</w>"
    ],
    [
      "es",
      "ty</w>"
    ],
    [
      "murder",
      "er</w>"
    ],
    [
      "tybal",
      "t</w>"
    ],
    [
      "su",
      "n</w>"
    ],
    [
      "y",
      "ing</w>"
    ],
    [
      "sha",
      "lt</w>"
    ],
    [
      "ar",
      "s</w>"
    ],
    [
      "tal",
      "k</w>"
    ],
    [
      "vi",
      "lla"
    ],
    [
      "ou",
      "d</w>"
    ],
    [
      "f",
      "la"
    ],
    [
      "bes",
      "eech</w>"
    ],
    [
      "d",
      "es</w>"
    ],
    [
      "h",
      "our</w>"
    ],
    [
      "be",
      "lie"
    ],
    [
      "ex",
      "e"
    ],
    [
      "grie",
      "f</w>"
    ],
    [
      "d",
      "ness</w>"
    ],
    [
      "ol",
      "y"
    ],
    [
      "vo",
      "li"
    ],
    [
      "w",
      "on"
    ],
    [
      "k",
      "ind</w>"
    ],
    [
      "n",
      "ed</w>"
    ],
    [
      "b",
      "ri"
    ],
    [
      "do",
      "w</w>"
    ],
    [
      "go",
      "t</w>"
    ],
    [
      "her",
      "d</w>"
    ],
    [
      "d",
      "ro"
    ],
    [
      "so",
      "ver"
    ],
    [
      "sover",
      "e"
    ],
    [
      "c",
      "us</w>"
    ],
    [
      "g",
      "on"
    ],
    [
      "ben",
      "voli"
    ],
    [
      "benvoli",
      "o</w>"
    ],
    [
      "poli",
      "x"
    ],
    [
      "polix",
      "en"
    ],
    [
      "polixen",
      "es</w>"
    ],
    [
      "si",
      "de</w>"
    ],
    [
      "gra",
      "ve</w>"
    ],
    [
      "fol",
      "low</w>"
    ],
    [
      "ck",
      "s</w>"
    ],
    [
      "chi",
      "l"
    ],
    [
      "sh",
      "ep"
    ],
    [
      "ta",
      "l</w>"
    ],
    [
      "f",
      "ran"
    ],
    [
      "monta",
      "gue</w>"
    ],
    [
      "au",
      "t"
    ],
    [
      "aut",
      "oly"
    ],
    [
      "autoly",
      "cus</w>"
    ],
    [
      "ma",
      "tter</w>"
    ],
    [
      "bu",
      "sin"
    ],
    [
      "sol",
      "di"
    ],
    [
      "b",
      "er"
    ],
    [
      "th",
      "ings</w>"
    ],
    [
      "than",
      "k</w>"
    ],
    [
      "p",
      "lay</w>"
    ],
    [
      "y",
      "ears</w>"
    ],
    [
      "d",
      "ge</w>"
    ],
    [
      "w",
      "in"
    ],
    [
      "la",
      "w</w>"
    ],
    [
      "hol",
      "y</w>"
    ],
    [
      "nat",
      "ure</w>"
    ],
    [
      "en",
      "ough</w>"
    ],
    [
      "busin",
      "ess</w>"
    ],
    [
      "ar",
      "ms</w>"
    ],
    [
      "de",
      "li"
    ],
    [
      "men",
      "ts</w>"
    ],
    [
      "ha",
      "te</w>"
    ],
    [
      "st",
      "ran"
    ],
    [
      "u",
      "m"
    ],
    [
      "fai",
      "th</w>"
    ],
    [
      "t",
      "re"
    ],
    [
      "ar",
      "y</w>"
    ],
    [
      "t",
      "wi"
    ],
    [
      "sea",
      "</w>"
    ],
    [
      "ju",
      "sti"
    ],
    [
      "mi",
      "s"
    ],
    [
      "tru",
      "th</w>"
    ],
    [
      "la",
      "te</w>"
    ],
    [
      "wi",
      "thou"
    ],
    [
      "withou",
      "t</w>"
    ],
    [
      "f",
      "ou"
    ],
    [
      "bi",
      "anc"
    ],
    [
      "en",
      "s</w>"
    ],
    [
      "y",
      "i"
    ],
    [
      "sh",
      "ed</w>"
    ],
    [
      "de",
      "vi"
    ],
    [
      "wi",
      "sh</w>"
    ],
    [
      "ha",
      "l"
    ],
    [
      "t",
      "ure</w>"
    ],
    [
      "sa",
      "w</w>"
    ],
    [
      "ri",
      "t</w>"
    ],
    [
      "po",
      "s"
    ],
    [
      "p",
      "er</w>"
    ],
    [
      "li",
      "ves</w>"
    ],
    [
      "ne",
      "w</w>"
    ],
    [
      "clo",
      "wn</w>"
    ],
    [
      "bianc",
      "a</w>"
    ],
    [
      "prosper",
      "o</w>"
    ],
    [
      "b",
      "</w>"
    ],
    [
      "t",
      "ro"
    ],
    [
      "sa",
      "ve</w>"
    ],
    [
      "pi",
      "ty</w>"
    ],
    [
      "i",
      "t"
    ],
    [
      "pa",
      "ss</w>"
    ],
    [
      "b",
      "on"
    ],
    [
      "wr",
      "ong</w>"
    ],
    [
      "ar",
      "i"
    ],
    [
      "ti",
      "ons</w>"
    ],
    [
      "wor",
      "thy</w>"
    ],
    [
      "ch",
      "an"
    ],
    [
      "c",
      "re"
    ],
    [
      "b",
      "loo"
    ],
    [
      "belie",
      "ve</w>"
    ],
    [
      "shep",
      "herd</w>"
    ],
    [
      "fal",
      "se</w>"
    ],
    [
      "ch",
      "e"
    ],
    [
      "villa",
      "in</w>"
    ],
    [
      "bea",
      "u"
    ],
    [
      "a",
      "h</w>"
    ],
    [
      "la",
      "ur"
    ],
    [
      "ci",
      "ty</w>"
    ],
    [
      "s",
      "end</w>"
    ],
    [
      "ver",
      "s</w>"
    ],
    [
      "ti",
      "es</w>"
    ],
    [
      "bor",
      "n</w>"
    ],
    [
      "e",
      "y</w>"
    ],
    [
      "laur",
      "ence</w>"
    ],
    [
      "k",
      "ate</w>"
    ],
    [
      "go",
      "ds</w>"
    ],
    [
      "ee",
      "l</w>"
    ],
    [
      "in",
      "c"
    ],
    [
      "hi",
      "gh</w>"
    ],
    [
      "fi",
      "ght</w>"
    ],
    [
      "for",
      "m</w>"
    ],
    [
      "wor",
      "n</w>"
    ],
    [
      "s",
      "ons</w>"
    ],
    [
      "do",
      "es</w>"
    ],
    [
      "le",
      "ft</w>"
    ],
    [
      "oun",
      "ds</w>"
    ],
    [
      "x",
      "</w>"
    ],
    [
      "t",
      "a</w>"
    ],
    [
      "sub",
      "je"
    ],
    [
      "un",
      "cle</w>"
    ],
    [
      "h",
      "un"
    ],
    [
      "your",
      "self</w>"
    ],
    [
      "er",
      "y</w>"
    ],
    [
      "hor",
      "se</w>"
    ],
    [
      "si",
      "l"
    ],
    [
      "sle",
      "ep</w>"
    ],
    [
      "ma",
      "id</w>"
    ],
    [
      "sti",
      "an</w>"
    ],
    [
      "pr",
      "oud</w>"
    ],
    [
      "s",
      "ly</w>"
    ],
    [
      "w",
      "al"
    ],
    [
      "sen",
      "at"
    ],
    [
      "t",
      "ou"
    ],
    [
      "fir",
      "e</w>"
    ],
    [
      "justi",
      "ce</w>"
    ],
    [
      "o",
      "a"
    ],
    [
      "me",
      "ans</w>"
    ],
    [
      "pres",
      "ent</w>"
    ],
    [
      "your",
      "s</w>"
    ],
    [
      "d",
      "ang"
    ],
    [
      "bloo",
      "dy</w>"
    ],
    [
      "se",
      "en</w>"
    ],
    [
      "loo",
      "ks</w>"
    ],
    [
      "sovere",
      "ign</w>"
    ],
    [
      "g",
      "r"
    ],
    [
      "fou",
      "l</w>"
    ],
    [
      "coun",
      "try</w>"
    ],
    [
      "th",
      "ers</w>"
    ],
    [
      "m",
      "ed</w>"
    ],
    [
      "f",
      "it</w>"
    ],
    [
      "mar",
      "k</w>"
    ],
    [
      "to",
      "ge"
    ],
    [
      "toge",
      "ther</w>"
    ],
    [
      "l",
      "ar"
    ],
    [
      "vol",
      "um"
    ],
    [
      "volum",
      "ni"
    ],
    [
      "volumni",
      "a</w>"
    ],
    [
      "chil",
      "dr"
    ],
    [
      "childr",
      "en</w>"
    ],
    [
      "li",
      "sh</w>"
    ],
    [
      "ou",
      "l"
    ],
    [
      "mer",
      "cy</w>"
    ],
    [
      "ll",
      "s</w>"
    ],
    [
      "an",
      "ne</w>"
    ],
    [
      "sig",
      "ni"
    ],
    [
      "au",
      "mer"
    ],
    [
      "aumer",
      "le</w>"
    ],
    [
      "cont",
      "ent</w>"
    ],
    [
      "ne",
      "ed</w>"
    ],
    [
      "w",
      "an"
    ],
    [
      "gen",
      "er"
    ],
    [
      "to",
      "ld</w>"
    ],
    [
      "mb",
      "</w>"
    ],
    [
      "p",
      "lu"
    ],
    [
      "f",
      "ly</w>"
    ],
    [
      "hast",
      "e</w>"
    ],
    [
      "rea",
      "d</w>"
    ],
    [
      "bo",
      "w</w>"
    ],
    [
      "eng",
      "land</w>"
    ],
    [
      "wo",
      "e</w>"
    ],
    [
      "t",
      "ness</w>"
    ],
    [
      "pa",
      "s"
    ],
    [
      "eng",
      "er</w>"
    ],
    [
      "v",
      "al"
    ],
    [
      "doub",
      "t</w>"
    ],
    [
      "see",
      "m</w>"
    ],
    [
      "k",
      "ed</w>"
    ],
    [
      "r",
      "ed</w>"
    ],
    [
      "ma",
      "j"
    ],
    [
      "serv",
      "ing"
    ],
    [
      "serving",
      "man</w>"
    ],
    [
      "si",
      "ster</w>"
    ],
    [
      "c",
      "are</w>"
    ],
    [
      "st",
      "or"
    ],
    [
      "s",
      "word</w>"
    ],
    [
      "m",
      "ess"
    ],
    [
      "mess",
      "enger</w>"
    ],
    [
      "di",
      "sp"
    ],
    [
      "da",
      "ys</w>"
    ],
    [
      "thin",
      "ks</w>"
    ],
    [
      "s",
      "ound</w>"
    ],
    [
      "a",
      "ble</w>"
    ],
    [
      "w",
      "re"
    ],
    [
      "le",
      "ar"
    ],
    [
      "trai",
      "tor</w>"
    ],
    [
      "ga",
      "unt</w>"
    ],
    [
      "e",
      "ither</w>"
    ],
    [
      "d",
      "le</w>"
    ],
    [
      "ar",
      "m</w>"
    ],
    [
      "be",
      "cause</w>"
    ],
    [
      "thr",
      "ough</w>"
    ],
    [
      "brea",
      "k</w>"
    ],
    [
      "hal",
      "f</w>"
    ],
    [
      "pro",
      "mi"
    ],
    [
      "i",
      "m</w>"
    ],
    [
      "di",
      "es</w>"
    ],
    [
      "i",
      "ll</w>"
    ],
    [
      "se",
      "l</w>"
    ],
    [
      "brea",
      "th</w>"
    ],
    [
      "in",
      "ted</w>"
    ],
    [
      "th",
      "yself</w>"
    ],
    [
      "maj",
      "esty</w>"
    ],
    [
      "f",
      "lor"
    ],
    [
      "on",
      "d"
    ],
    [
      "kno",
      "wn</w>"
    ],
    [
      "o",
      "th</w>"
    ],
    [
      "foo",
      "t</w>"
    ],
    [
      "c",
      "er"
    ],
    [
      "hi",
      "gh"
    ],
    [
      "ki",
      "ss</w>"
    ],
    [
      "jo",
      "h"
    ],
    [
      "joh",
      "n</w>"
    ],
    [
      "bi",
      "ond"
    ],
    [
      "biond",
      "ell"
    ],
    [
      "biondell",
      "o</w>"
    ],
    [
      "reme",
      "mber</w>"
    ],
    [
      "t",
      "was</w>"
    ],
    [
      "re",
      "turn</w>"
    ],
    [
      "s",
      "on"
    ],
    [
      "char",
      "ge</w>"
    ],
    [
      "c",
      "ted</w>"
    ],
    [
      "dra",
      "w</w>"
    ],
    [
      "we",
      "ep</w>"
    ],
    [
      "hea",
      "vy</w>"
    ],
    [
      "f",
      "ear"
    ],
    [
      "re",
      "l</w>"
    ],
    [
      "ca",
      "tes"
    ],
    [
      "cates",
      "by</w>"
    ],
    [
      "fol",
      "k</w>"
    ],
    [
      "par",
      "is</w>"
    ],
    [
      "b",
      "at"
    ],
    [
      "chan",
      "ge</w>"
    ],
    [
      "g",
      "la"
    ],
    [
      "su",
      "e</w>"
    ],
    [
      "er",
      "ous</w>"
    ],
    [
      "de",
      "m"
    ],
    [
      "un",
      "der"
    ],
    [
      "co",
      "ld</w>"
    ],
    [
      "c",
      "ts</w>"
    ],
    [
      "t",
      "end</w>"
    ],
    [
      "tor",
      "s</w>"
    ],
    [
      "y",
      "e</w>"
    ],
    [
      "sa",
      "ys</w>"
    ],
    [
      "st",
      "s</w>"
    ],
    [
      "h",
      "an"
    ],
    [
      "g",
      "es</w>"
    ],
    [
      "d",
      "ers</w>"
    ],
    [
      "f",
      "ound</w>"
    ],
    [
      "o",
      "ver</w>"
    ],
    [
      "thou",
      "ghts</w>"
    ],
    [
      "gentle",
      "men</w>"
    ],
    [
      "f",
      "ea"
    ],
    [
      "st",
      "rai"
    ],
    [
      "go",
      "o"
    ],
    [
      "lo",
      "st</w>"
    ],
    [
      "l",
      "est</w>"
    ],
    [
      "ran",
      "d"
    ],
    [
      "al",
      "as</w>"
    ],
    [
      "wi",
      "dow</w>"
    ],
    [
      "gre",
      "y</w>"
    ],
    [
      "nor",
      "folk</w>"
    ],
    [
      "her",
      "mi"
    ],
    [
      "signi",
      "or</w>"
    ],
    [
      "pur",
      "pose</w>"
    ],
    [
      "c",
      "ry</w>"
    ],
    [
      "qu",
      "ar"
    ],
    [
      "de",
      "f"
    ],
    [
      "u",
      "lt</w>"
    ],
    [
      "hea",
      "ven"
    ],
    [
      "war",
      "rant</w>"
    ],
    [
      "o",
      "be"
    ],
    [
      "si",
      "r"
    ],
    [
      "rea",
      "son</w>"
    ],
    [
      "re",
      "qu"
    ],
    [
      "a",
      "m"
    ],
    [
      "en",
      "ty</w>"
    ],
    [
      "co",
      "l"
    ],
    [
      "oa",
      "th</w>"
    ],
    [
      "can",
      "st</w>"
    ],
    [
      "lie",
      "ge</w>"
    ],
    [
      "hermi",
      "one</w>"
    ],
    [
      "flor",
      "iz"
    ],
    [
      "floriz",
      "el</w>"
    ],
    [
      "s",
      "ca"
    ],
    [
      "stran",
      "ge</w>"
    ],
    [
      "sh",
      "or"
    ],
    [
      "al",
      "one</w>"
    ],
    [
      "s",
      "worn</w>"
    ],
    [
      "at",
      "es</w>"
    ],
    [
      "d",
      "in"
    ],
    [
      "bu",
      "ry</w>"
    ],
    [
      "c",
      "ri"
    ],
    [
      "en",
      "ch</w>"
    ],
    [
      "fa",
      "ir"
    ],
    [
      "pa",
      "ir</w>"
    ],
    [
      "si",
      "ci"
    ],
    [
      "tw",
      "enty</w>"
    ],
    [
      "gr",
      "ound</w>"
    ],
    [
      "ra",
      "ge</w>"
    ],
    [
      "bani",
      "sh</w>"
    ],
    [
      "wo",
      "men</w>"
    ],
    [
      "mar",
      "ried</w>"
    ],
    [
      "rep",
      "ort</w>"
    ],
    [
      "e",
      "m</w>"
    ],
    [
      "er",
      "ing</w>"
    ],
    [
      "in",
      "stru"
    ],
    [
      "m",
      "er</w>"
    ],
    [
      "ri",
      "vers</w>"
    ],
    [
      "than",
      "ks</w>"
    ],
    [
      "br",
      "ought</w>"
    ],
    [
      "ent",
      "rea"
    ],
    [
      "per",
      "son</w>"
    ],
    [
      "sla",
      "in</w>"
    ],
    [
      "st",
      "ands</w>"
    ],
    [
      "m",
      "ble</w>"
    ],
    [
      "spi",
      "rit</w>"
    ],
    [
      "th",
      "i"
    ],
    [
      "f",
      "ree</w>"
    ],
    [
      "s",
      "y</w>"
    ],
    [
      "h",
      "ere"
    ],
    [
      "n",
      "er</w>"
    ],
    [
      "n",
      "ear</w>"
    ],
    [
      "res",
      "ol"
    ],
    [
      "re",
      "ven"
    ],
    [
      "stri",
      "ke</w>"
    ],
    [
      "f",
      "l"
    ],
    [
      "ha",
      "</w>"
    ],
    [
      "ten",
      "der</w>"
    ],
    [
      "li",
      "a</w>"
    ],
    [
      "pra",
      "y"
    ],
    [
      "on",
      "d</w>"
    ],
    [
      "de",
      "ep</w>"
    ],
    [
      "kno",
      "ws</w>"
    ],
    [
      "ha",
      "ving</w>"
    ],
    [
      "o",
      "ver"
    ],
    [
      "ea",
      "</w>"
    ],
    [
      "ser",
      "vice</w>"
    ],
    [
      "strai",
      "ght</w>"
    ],
    [
      "lo",
      "ss</w>"
    ],
    [
      "ma",
      "d</w>"
    ],
    [
      "i",
      "mp"
    ],
    [
      "di",
      "dst</w>"
    ],
    [
      "beau",
      "ty</w>"
    ],
    [
      "rich",
      "mon"
    ],
    [
      "le",
      "w"
    ],
    [
      "fran",
      "ce</w>"
    ],
    [
      "ene",
      "my</w>"
    ],
    [
      "cour",
      "se</w>"
    ],
    [
      "comm",
      "on</w>"
    ],
    [
      "pati",
      "ence</w>"
    ],
    [
      "gener",
      "al</w>"
    ],
    [
      "tri",
      "bu"
    ],
    [
      "fa",
      "ult</w>"
    ],
    [
      "lo",
      "se</w>"
    ],
    [
      "foo",
      "l</w>"
    ],
    [
      "eng",
      "th</w>"
    ],
    [
      "h",
      "ours</w>"
    ],
    [
      "sa",
      "me</w>"
    ],
    [
      "con",
      "su"
    ],
    [
      "exe",
      "cu"
    ],
    [
      "so",
      "on</w>"
    ],
    [
      "si",
      "ght</w>"
    ],
    [
      "mi",
      "l"
    ],
    [
      "ma",
      "y"
    ],
    [
      "gh",
      "t"
    ],
    [
      "richmon",
      "d</w>"
    ],
    [
      "se",
      "ba"
    ],
    [
      "seba",
      "stian</w>"
    ],
    [
      "cei",
      "ve</w>"
    ],
    [
      "v",
      "an"
    ],
    [
      "senat",
      "or</w>"
    ],
    [
      "su",
      "c"
    ],
    [
      "z",
      "e</w>"
    ],
    [
      "p",
      "h"
    ],
    [
      "ch",
      "es</w>"
    ],
    [
      "a",
      "bo"
    ],
    [
      "y",
      "ea</w>"
    ],
    [
      "b",
      "la"
    ],
    [
      "tou",
      "ch</w>"
    ],
    [
      "des",
      "ire</w>"
    ],
    [
      "pa",
      "st</w>"
    ],
    [
      "bi",
      "r"
    ],
    [
      "sa",
      "int</w>"
    ],
    [
      "an",
      "ton"
    ],
    [
      "yi",
      "eld</w>"
    ],
    [
      "m",
      "ou"
    ],
    [
      "wor",
      "k</w>"
    ],
    [
      "b",
      "our</w>"
    ],
    [
      "or",
      "s</w>"
    ],
    [
      "cour",
      "t</w>"
    ],
    [
      "plu",
      "ck</w>"
    ],
    [
      "fi",
      "e</w>"
    ],
    [
      "op",
      "en</w>"
    ],
    [
      "f",
      "r"
    ],
    [
      "an",
      "ti"
    ],
    [
      "a",
      "ir</w>"
    ],
    [
      "ta",
      "tion</w>"
    ],
    [
      "t",
      "were</w>"
    ],
    [
      "it",
      "self</w>"
    ],
    [
      "wa",
      "ter</w>"
    ],
    [
      "a",
      "d</w>"
    ],
    [
      "du",
      "ty</w>"
    ],
    [
      "ea",
      "l</w>"
    ],
    [
      "o",
      "x"
    ],
    [
      "anton",
      "io</w>"
    ],
    [
      "citiz",
      "ens</w>"
    ],
    [
      "ac",
      "cu"
    ],
    [
      "ta",
      "ble</w>"
    ],
    [
      "k",
      "ing"
    ],
    [
      "mar",
      "ri"
    ],
    [
      "comp",
      "any</w>"
    ],
    [
      "b",
      "ound</w>"
    ],
    [
      "pri",
      "thee</w>"
    ],
    [
      "ser",
      "ve</w>"
    ],
    [
      "comm",
      "and</w>"
    ],
    [
      "un",
      "less</w>"
    ],
    [
      "sa",
      "ke</w>"
    ],
    [
      "with",
      "al</w>"
    ],
    [
      "pri",
      "son</w>"
    ],
    [
      "o",
      "b"
    ],
    [
      "s",
      "ci"
    ],
    [
      "hon",
      "est</w>"
    ],
    [
      "th",
      "s</w>"
    ],
    [
      "su",
      "pp"
    ],
    [
      "ri",
      "ch</w>"
    ],
    [
      "ta",
      "le</w>"
    ],
    [
      "af",
      "fe"
    ],
    [
      "wi",
      "se</w>"
    ],
    [
      "f",
      "f</w>"
    ],
    [
      "r",
      "ing</w>"
    ],
    [
      "tru",
      "st</w>"
    ],
    [
      "pa",
      "le</w>"
    ],
    [
      "a",
      "tion</w>"
    ],
    [
      "heaven",
      "s</w>"
    ],
    [
      "bea",
      "t</w>"
    ],
    [
      "dr",
      "ed</w>"
    ],
    [
      "hear",
      "ts</w>"
    ],
    [
      "he",
      "ll</w>"
    ],
    [
      "h",
      "ang"
    ],
    [
      "qu",
      "a"
    ],
    [
      "fu",
      "l"
    ],
    [
      "w",
      "ear</w>"
    ],
    [
      "v",
      "eng"
    ],
    [
      "s",
      "cor"
    ],
    [
      "cla",
      "im</w>"
    ],
    [
      "tt",
      "ing</w>"
    ],
    [
      "i",
      "sh</w>"
    ],
    [
      "fear",
      "ful</w>"
    ],
    [
      "cu",
      "t</w>"
    ],
    [
      "so",
      "m</w>"
    ],
    [
      "he",
      "ir</w>"
    ],
    [
      "ju",
      "st</w>"
    ],
    [
      "drea",
      "m</w>"
    ],
    [
      "v",
      "e"
    ],
    [
      "mi",
      "es</w>"
    ],
    [
      "po",
      "int</w>"
    ],
    [
      "y",
      "es</w>"
    ],
    [
      "m",
      "our</w>"
    ],
    [
      "ea",
      "se</w>"
    ],
    [
      "lo",
      "ws</w>"
    ],
    [
      "fa",
      "st</w>"
    ],
    [
      "d",
      "are</w>"
    ],
    [
      "oul",
      "dst</w>"
    ],
    [
      "pr",
      "inc"
    ],
    [
      "as",
      "k</w>"
    ],
    [
      "some",
      "thing</w>"
    ],
    [
      "st",
      "u"
    ],
    [
      "lo",
      "ving</w>"
    ],
    [
      "ox",
      "ford</w>"
    ],
    [
      "th",
      "o"
    ],
    [
      "ma",
      "s</w>"
    ],
    [
      "marri",
      "age</w>"
    ],
    [
      "lew",
      "is</w>"
    ],
    [
      "i",
      "ts</w>"
    ],
    [
      "su",
      "ff"
    ],
    [
      "reven",
      "ge</w>"
    ],
    [
      "virtu",
      "e</w>"
    ],
    [
      "in",
      "k</w>"
    ],
    [
      "t",
      "ty</w>"
    ],
    [
      "o",
      "p</w>"
    ],
    [
      "re",
      "w</w>"
    ],
    [
      "t",
      "est</w>"
    ],
    [
      "fi",
      "eld</w>"
    ],
    [
      "ch",
      "ance</w>"
    ],
    [
      "har",
      "k</w>"
    ],
    [
      "sou",
      "ls</w>"
    ],
    [
      "offi",
      "c"
    ],
    [
      "m",
      "ing</w>"
    ],
    [
      "w",
      "er"
    ],
    [
      "for",
      "ce</w>"
    ],
    [
      "ent",
      "ly</w>"
    ],
    [
      "voi",
      "ces</w>"
    ],
    [
      "pi",
      "e"
    ],
    [
      "coun",
      "sel</w>"
    ],
    [
      "c",
      "rea"
    ],
    [
      "sir",
      "ra"
    ],
    [
      "sirra",
      "h</w>"
    ],
    [
      "high",
      "ness</w>"
    ],
    [
      "gh",
      "ty</w>"
    ],
    [
      "wi",
      "l"
    ],
    [
      "bo",
      "o"
    ],
    [
      "pe",
      "ter</w>"
    ],
    [
      "gon",
      "z"
    ],
    [
      "gonz",
      "al"
    ],
    [
      "gonzal",
      "o</w>"
    ],
    [
      "v",
      "ent"
    ],
    [
      "be",
      "come</w>"
    ],
    [
      "st",
      "ers</w>"
    ],
    [
      "ea",
      "t</w>"
    ],
    [
      "deli",
      "ver</w>"
    ],
    [
      "s",
      "mi"
    ],
    [
      "t",
      "in"
    ],
    [
      "ru",
      "n</w>"
    ],
    [
      "e",
      "vi"
    ],
    [
      "th",
      "ri"
    ],
    [
      "d",
      "est</w>"
    ],
    [
      "wor",
      "se</w>"
    ],
    [
      "w",
      "ing</w>"
    ],
    [
      "m",
      "et</w>"
    ],
    [
      "bra",
      "ve</w>"
    ],
    [
      "ne",
      "ither</w>"
    ],
    [
      "ll",
      "ing</w>"
    ],
    [
      "lear",
      "n</w>"
    ],
    [
      "st",
      "ra"
    ],
    [
      "lo",
      "ves</w>"
    ],
    [
      "com",
      "ing</w>"
    ],
    [
      "m",
      "el"
    ],
    [
      "twi",
      "xt</w>"
    ],
    [
      "i",
      "es</w>"
    ],
    [
      "ep",
      "ing</w>"
    ],
    [
      "kne",
      "w</w>"
    ],
    [
      "un",
      "ti"
    ],
    [
      "ne",
      "xt</w>"
    ],
    [
      "sa",
      "ti"
    ],
    [
      "str",
      "ong</w>"
    ],
    [
      "ene",
      "mies</w>"
    ],
    [
      "hel",
      "d</w>"
    ],
    [
      "mo",
      "ve</w>"
    ],
    [
      "t",
      "we"
    ],
    [
      "you",
      "th</w>"
    ],
    [
      "see",
      "k</w>"
    ],
    [
      "me",
      "thinks</w>"
    ],
    [
      "war",
      "ds</w>"
    ],
    [
      "p",
      "en"
    ],
    [
      "w",
      "ind</w>"
    ],
    [
      "gi",
      "ven</w>"
    ],
    [
      "f",
      "an"
    ],
    [
      "plea",
      "sure</w>"
    ],
    [
      "l",
      "th</w>"
    ],
    [
      "su",
      "it</w>"
    ],
    [
      "s",
      "car"
    ],
    [
      "p",
      "lan"
    ],
    [
      "li",
      "ps</w>"
    ],
    [
      "be",
      "hold</w>"
    ],
    [
      "c",
      "lou"
    ],
    [
      "ti",
      "tle</w>"
    ],
    [
      "t",
      "ted</w>"
    ],
    [
      "po",
      "st</w>"
    ],
    [
      "lan",
      "ca"
    ],
    [
      "lanca",
      "ster</w>"
    ],
    [
      "gui",
      "l"
    ],
    [
      "el",
      "bow</w>"
    ],
    [
      "fur",
      "ther</w>"
    ],
    [
      "mi",
      "ty</w>"
    ],
    [
      "u",
      "sur"
    ],
    [
      "conf",
      "ess</w>"
    ],
    [
      "re",
      "ma"
    ],
    [
      "n",
      "es</w>"
    ],
    [
      "c",
      "ru"
    ],
    [
      "be",
      "twe"
    ],
    [
      "betwe",
      "en</w>"
    ],
    [
      "str",
      "ength</w>"
    ],
    [
      "g",
      "ates</w>"
    ],
    [
      "to",
      "ok</w>"
    ],
    [
      "mer",
      "ry</w>"
    ],
    [
      "i",
      "son</w>"
    ],
    [
      "devi",
      "l</w>"
    ],
    [
      "st",
      "ing</w>"
    ],
    [
      "tt",
      "ers</w>"
    ],
    [
      "cei",
      "ved</w>"
    ],
    [
      "po",
      "sed</w>"
    ],
    [
      "la",
      "w"
    ],
    [
      "g",
      "lor"
    ],
    [
      "to",
      "wer</w>"
    ],
    [
      "or",
      "ge</w>"
    ],
    [
      "d",
      "or"
    ],
    [
      "le",
      "y</w>"
    ],
    [
      "mi",
      "rand"
    ],
    [
      "mirand",
      "a</w>"
    ],
    [
      "c",
      "urse</w>"
    ],
    [
      "soldi",
      "er</w>"
    ],
    [
      "i",
      "ce</w>"
    ],
    [
      "fa",
      "v"
    ],
    [
      "bo",
      "ld</w>"
    ],
    [
      "the",
      "m"
    ],
    [
      "them",
      "selves</w>"
    ],
    [
      "k",
      "ings</w>"
    ],
    [
      "si",
      "ble</w>"
    ],
    [
      "h",
      "o</w>"
    ],
    [
      "fe",
      "ct</w>"
    ],
    [
      "p",
      "es</w>"
    ],
    [
      "ba",
      "d</w>"
    ],
    [
      "in",
      "ed</w>"
    ],
    [
      "t",
      "ent</w>"
    ],
    [
      "g",
      "ing</w>"
    ],
    [
      "pos",
      "s"
    ],
    [
      "ch",
      "ee"
    ],
    [
      "ga",
      "ve</w>"
    ],
    [
      "te",
      "ous</w>"
    ],
    [
      "di",
      "sh"
    ],
    [
      "e",
      "mp"
    ],
    [
      "bo",
      "som</w>"
    ],
    [
      "sa",
      "d</w>"
    ],
    [
      "ge",
      "orge</w>"
    ],
    [
      "k",
      "en"
    ],
    [
      "mur",
      "der</w>"
    ],
    [
      "mar",
      "i"
    ],
    [
      "per",
      "di"
    ],
    [
      "lo",
      "ved</w>"
    ],
    [
      "al",
      "ready</w>"
    ],
    [
      "pla",
      "in</w>"
    ],
    [
      "s",
      "ma"
    ],
    [
      "p",
      "or"
    ],
    [
      "sho",
      "p</w>"
    ],
    [
      "tribu",
      "nes</w>"
    ],
    [
      "th",
      "row</w>"
    ],
    [
      "bes",
      "i"
    ],
    [
      "al",
      "ong</w>"
    ],
    [
      "el",
      "s</w>"
    ],
    [
      "f",
      "re"
    ],
    [
      "b",
      "rie"
    ],
    [
      "low",
      "ers</w>"
    ],
    [
      "in",
      "ter"
    ],
    [
      "en",
      "d"
    ],
    [
      "di",
      "re"
    ],
    [
      "e",
      "f"
    ],
    [
      "ci",
      "ent</w>"
    ],
    [
      "mor",
      "tal</w>"
    ],
    [
      "b",
      "lack</w>"
    ],
    [
      "in",
      "ts</w>"
    ],
    [
      "st",
      "ar"
    ],
    [
      "wat",
      "ch</w>"
    ],
    [
      "sic",
      "</w>"
    ],
    [
      "fi",
      "ed</w>"
    ],
    [
      "da",
      "m"
    ],
    [
      "or",
      "der</w>"
    ],
    [
      "sati",
      "s"
    ],
    [
      "br",
      "ay</w>"
    ],
    [
      "th",
      "or"
    ],
    [
      "so",
      "ft</w>"
    ],
    [
      "wa",
      "ys</w>"
    ],
    [
      "i",
      "gh"
    ],
    [
      "han",
      "g</w>"
    ],
    [
      "st",
      "y</w>"
    ],
    [
      "c",
      "ess</w>"
    ],
    [
      "go",
      "es</w>"
    ],
    [
      "is",
      "sue</w>"
    ],
    [
      "m",
      "p</w>"
    ],
    [
      "tt",
      "er"
    ],
    [
      "spo",
      "ke</w>"
    ],
    [
      "fe",
      "tch</w>"
    ],
    [
      "whi",
      "l"
    ],
    [
      "whil",
      "st</w>"
    ],
    [
      "me",
      "an"
    ],
    [
      "f",
      "lo"
    ],
    [
      "mor",
      "ning</w>"
    ],
    [
      "wor",
      "th</w>"
    ],
    [
      "vi",
      "c"
    ],
    [
      "offi",
      "ce</w>"
    ],
    [
      "for",
      "get</w>"
    ],
    [
      "li",
      "ber"
    ],
    [
      "tr",
      "ou"
    ],
    [
      "res",
      "pe"
    ],
    [
      "ho",
      "od</w>"
    ],
    [
      "e",
      "ts</w>"
    ],
    [
      "st",
      "er"
    ],
    [
      "soldi",
      "ers</w>"
    ],
    [
      "i",
      "ous</w>"
    ],
    [
      "n",
      "ar"
    ],
    [
      "ear",
      "l</w>"
    ],
    [
      "gre",
      "en</w>"
    ],
    [
      "w",
      "d</w>"
    ],
    [
      "tho",
      "mas</w>"
    ],
    [
      "s",
      "man</w>"
    ],
    [
      "stan",
      "ley</w>"
    ],
    [
      "here",
      "ford</w>"
    ],
    [
      "subje",
      "ct</w>"
    ],
    [
      "mo",
      "w"
    ],
    [
      "mow",
      "bray</w>"
    ],
    [
      "perdi",
      "ta</w>"
    ],
    [
      "s",
      "a</w>"
    ],
    [
      "pro",
      "ce"
    ],
    [
      "app",
      "ear</w>"
    ],
    [
      "van",
      "ta"
    ],
    [
      "s",
      "wi"
    ],
    [
      "li",
      "ty</w>"
    ],
    [
      "won",
      "der</w>"
    ],
    [
      "th",
      "ence</w>"
    ],
    [
      "wh",
      "e"
    ],
    [
      "w",
      "ns</w>"
    ],
    [
      "e",
      "mb"
    ],
    [
      "j",
      "est</w>"
    ],
    [
      "e",
      "m"
    ],
    [
      "mar",
      "ch</w>"
    ],
    [
      "fo",
      "e</w>"
    ],
    [
      "b",
      "le"
    ],
    [
      "ha",
      "dst</w>"
    ],
    [
      "w",
      "ounds</w>"
    ],
    [
      "w",
      "ri"
    ],
    [
      "k",
      "na"
    ],
    [
      "go",
      "ld</w>"
    ],
    [
      "offic",
      "er</w>"
    ],
    [
      "en",
      "ter</w>"
    ],
    [
      "wi",
      "t</w>"
    ],
    [
      "l",
      "o</w>"
    ],
    [
      "ch",
      "ang"
    ],
    [
      "mari",
      "an"
    ],
    [
      "marian",
      "a</w>"
    ],
    [
      "p",
      "at"
    ],
    [
      "war",
      "s</w>"
    ],
    [
      "ti",
      "ve</w>"
    ],
    [
      "bat",
      "tle</w>"
    ],
    [
      "gu",
      "es</w>"
    ],
    [
      "at",
      "tend</w>"
    ],
    [
      "mo",
      "ck</w>"
    ],
    [
      "li",
      "ant</w>"
    ],
    [
      "ck",
      "ed</w>"
    ],
    [
      "r",
      "en"
    ],
    [
      "u",
      "ght</w>"
    ],
    [
      "e",
      "th</w>"
    ],
    [
      "ba",
      "se</w>"
    ],
    [
      "dang",
      "erous</w>"
    ],
    [
      "den",
      "y</w>"
    ],
    [
      "ful",
      "ly</w>"
    ],
    [
      "requ",
      "est</w>"
    ],
    [
      "of",
      "ten</w>"
    ],
    [
      "po",
      "ison</w>"
    ],
    [
      "on",
      "es</w>"
    ],
    [
      "g",
      "rant</w>"
    ],
    [
      "u",
      "mp"
    ],
    [
      "t",
      "on</w>"
    ],
    [
      "ma",
      "i"
    ],
    [
      "voi",
      "ce</w>"
    ],
    [
      "entrea",
      "t</w>"
    ],
    [
      "pres",
      "ence</w>"
    ],
    [
      "bl",
      "es"
    ],
    [
      "jo",
      "in</w>"
    ],
    [
      "spe",
      "ed</w>"
    ],
    [
      "ha",
      "p"
    ],
    [
      "f",
      "res"
    ],
    [
      "ca",
      "se</w>"
    ],
    [
      "pe",
      "d"
    ],
    [
      "mi",
      "ser"
    ],
    [
      "de",
      "eds</w>"
    ],
    [
      "ar",
      "ing</w>"
    ],
    [
      "f",
      "eel</w>"
    ],
    [
      "promi",
      "se</w>"
    ],
    [
      "ti",
      "us</w>"
    ],
    [
      "pr",
      "ess</w>"
    ],
    [
      "where",
      "in</w>"
    ],
    [
      "d",
      "ru"
    ],
    [
      "w",
      "ant</w>"
    ],
    [
      "h",
      "ur"
    ],
    [
      "su",
      "d"
    ],
    [
      "wo",
      "o</w>"
    ],
    [
      "h",
      "ard</w>"
    ],
    [
      "qui",
      "ck"
    ],
    [
      "wer",
      "t</w>"
    ],
    [
      "b",
      "lu"
    ],
    [
      "ho",
      "t</w>"
    ],
    [
      "re",
      "ver"
    ],
    [
      "la",
      "r</w>"
    ],
    [
      "consu",
      "l</w>"
    ],
    [
      "hea",
      "ds</w>"
    ],
    [
      "s",
      "k"
    ],
    [
      "dish",
      "on"
    ],
    [
      "v",
      "el</w>"
    ],
    [
      "c",
      "ure</w>"
    ],
    [
      "th",
      "ro"
    ],
    [
      "s",
      "ent"
    ],
    [
      "quar",
      "rel</w>"
    ],
    [
      "i",
      "ma"
    ],
    [
      "for",
      "ward</w>"
    ],
    [
      "c",
      "r"
    ],
    [
      "thr",
      "one</w>"
    ],
    [
      "see",
      "ms</w>"
    ],
    [
      "ch",
      "ri"
    ],
    [
      "mi",
      "ghty</w>"
    ],
    [
      "go",
      "ver"
    ],
    [
      "lon",
      "don</w>"
    ],
    [
      "be",
      "l</w>"
    ],
    [
      "wa",
      "in</w>"
    ],
    [
      "so",
      "mer"
    ],
    [
      "e",
      "f</w>"
    ],
    [
      "al",
      "ly</w>"
    ],
    [
      "fa",
      "ul"
    ],
    [
      "th",
      "ither</w>"
    ],
    [
      "for",
      "e"
    ],
    [
      "wi",
      "n</w>"
    ],
    [
      "f",
      "in"
    ],
    [
      "i",
      "l"
    ],
    [
      "al",
      "most</w>"
    ],
    [
      "fi",
      "ve</w>"
    ],
    [
      "vol",
      "s"
    ],
    [
      "lar",
      "tius</w>"
    ],
    [
      "th",
      "er"
    ],
    [
      "sa",
      "fe</w>"
    ],
    [
      "we",
      "d"
    ],
    [
      "pray",
      "ers</w>"
    ],
    [
      "brie",
      "f</w>"
    ],
    [
      "bu",
      "y</w>"
    ],
    [
      "su",
      "m"
    ],
    [
      "s",
      "li"
    ],
    [
      "sla",
      "ve</w>"
    ],
    [
      "u",
      "e</w>"
    ],
    [
      "con",
      "sent</w>"
    ],
    [
      "wa",
      "sh</w>"
    ],
    [
      "har",
      "m</w>"
    ],
    [
      "beg",
      "in</w>"
    ],
    [
      "princ",
      "ely</w>"
    ],
    [
      "o",
      "c"
    ],
    [
      "t",
      "ar"
    ],
    [
      "o",
      "w"
    ],
    [
      "an",
      "cient</w>"
    ],
    [
      "le",
      "dge</w>"
    ],
    [
      "sp",
      "a"
    ],
    [
      "brea",
      "st</w>"
    ],
    [
      "u",
      "</w>"
    ],
    [
      "o",
      "d"
    ],
    [
      "pati",
      "ent</w>"
    ],
    [
      "law",
      "ful</w>"
    ],
    [
      "ch",
      "ur"
    ],
    [
      "u",
      "ghter</w>"
    ],
    [
      "un",
      "k</w>"
    ],
    [
      "kee",
      "per</w>"
    ],
    [
      "mu",
      "sic</w>"
    ],
    [
      "somer",
      "set</w>"
    ],
    [
      "faul",
      "ts</w>"
    ],
    [
      "pe",
      "ti"
    ],
    [
      "g",
      "ri"
    ],
    [
      "s",
      "lan"
    ],
    [
      "pre",
      "tty</w>"
    ],
    [
      "wh",
      "o"
    ],
    [
      "f",
      "er"
    ],
    [
      "ra",
      "l</w>"
    ],
    [
      "di",
      "g"
    ],
    [
      "wi",
      "s"
    ],
    [
      "va",
      "liant</w>"
    ],
    [
      "wh",
      "ence</w>"
    ],
    [
      "i",
      "se</w>"
    ],
    [
      "abo",
      "ve</w>"
    ],
    [
      "con",
      "dem"
    ],
    [
      "con",
      "c"
    ],
    [
      "sa",
      "ge</w>"
    ],
    [
      "tt",
      "en</w>"
    ],
    [
      "mi",
      "ss</w>"
    ],
    [
      "ap",
      "pro"
    ],
    [
      "tri",
      "ump"
    ],
    [
      "fl",
      "es"
    ],
    [
      "mea",
      "sure</w>"
    ],
    [
      "sp",
      "eech</w>"
    ],
    [
      "pres",
      "ently</w>"
    ],
    [
      "a",
      "wa"
    ],
    [
      "sh",
      "ment</w>"
    ],
    [
      "kno",
      "ck</w>"
    ],
    [
      "vo",
      "w</w>"
    ],
    [
      "swe",
      "e"
    ],
    [
      "bi",
      "shop</w>"
    ],
    [
      "ra",
      "t"
    ],
    [
      "rat",
      "clif"
    ],
    [
      "ratclif",
      "f</w>"
    ],
    [
      "d",
      "ine</w>"
    ],
    [
      "ma",
      "li"
    ],
    [
      "coun",
      "t</w>"
    ],
    [
      "ro",
      "man</w>"
    ],
    [
      "a",
      "lack</w>"
    ],
    [
      "suff",
      "er</w>"
    ],
    [
      "b",
      "li"
    ],
    [
      "vanta",
      "ge</w>"
    ],
    [
      "mo",
      "on</w>"
    ],
    [
      "mo",
      "ved</w>"
    ],
    [
      "gi",
      "r"
    ],
    [
      "whe",
      "ther</w>"
    ]
  ]
}