{
  "merges": [
    [
      "e",
      "</w>"
    ],
    [
      "s",
      "</w>"
    ],
    [
      "t",
      "h"
    ],
    [
      "d",
      "</w>"
    ],
    [
      ".",
      "</w>"
    ],
    [
      "t",
      "</w>"
    ],
    [
      "r",
      "e"
    ],
    [
      "e",
      "r"
    ],
    [
      "i",
      "n"
    ],
    [
      "a",
      "t"
    ],
    [
      "a",
      "n"
    ],
    [
      "o",
      "n"
    ],
    [
      "th",
      "e</w>"
    ],
    [
      "s",
      "e"
    ],
    [
      "o",
      "r"
    ],
    [
      "s",
      "t"
    ],
    [
      "a",
      "l"
    ],
    [
      "a",
      "r"
    ],
    [
      "y",
      "</w>"
    ],
    [
      ",",
      "</w>"
    ],
    [
      "o",
      "</w>"
    ],
    [
      "r",
      "o"
    ],
    [
      "e",
      "n"
    ],
    [
      "i",
      "on"
    ],
    [
      "e",
      "d</w>"
    ],
    [
      "i",
      "c"
    ],
    [
      "0",
      "</w>"
    ],
    [
      "ion",
      "</w>"
    ],
    [
      "c",
      "l"
    ],
    [
      "u",
      "r"
    ],
    [
      "in",
      "g"
    ],
    [
      "or",
      "</w>"
    ],
    [
      "ing",
      "</w>"
    ],
    [
      "t",
      "o</w>"
    ],
    [
      "a",
      "</w>"
    ],
    [
      "an",
      "d</w>"
    ],
    [
      "e",
      "s</w>"
    ],
    [
      "er",
      "</w>"
    ],
    [
      "e",
      "c"
    ],
    [
      "i",
      "s</w>"
    ],
    [
      "a",
      "b"
    ],
    [
      "s",
      "u"
    ],
    [
      ":",
      "</w>"
    ],
    [
      "1",
      "</w>"
    ],
    [
      "t",
      "s</w>"
    ],
    [
      "e",
      "s"
    ],
    [
      "f",
      "</w>"
    ],
    [
      "ab",
      "l"
    ],
    [
      "p",
      "ro"
    ],
    [
      "ar",
      "i"
    ],
    [
      "l",
      "o"
    ],
    [
      "l",
      "</w>"
    ],
    [
      "a",
      "c"
    ],
    [
      "o",
      "f</w>"
    ],
    [
      "al",
      "</w>"
    ],
    [
      "e",
      "x"
    ],
    [
      "s",
      "s"
    ],
    [
      "a",
      "s</w>"
    ],
    [
      "se",
      "d</w>"
    ],
    [
      "c",
      "o"
    ],
    [
      "v",
      "i"
    ],
    [
      "d",
      "at"
    ],
    [
      "p",
      "</w>"
    ],
    [
      "cl",
      "u"
    ],
    [
      "er",
      "e</w>"
    ],
    [
      "c",
      "ur"
    ],
    [
      "-",
      "</w>"
    ],
    [
      "r",
      "i"
    ],
    [
      "v",
      "ari"
    ],
    [
      "vari",
      "abl"
    ],
    [
      "s",
      "e</w>"
    ],
    [
      "re",
      "n"
    ],
    [
      "m",
      "</w>"
    ],
    [
      "f",
      "or</w>"
    ],
    [
      "4",
      "</w>"
    ],
    [
      "d",
      "e"
    ],
    [
      "i",
      "st"
    ],
    [
      "w",
      "i"
    ],
    [
      "at",
      "ion</w>"
    ],
    [
      "in",
      "</w>"
    ],
    [
      "l",
      "y</w>"
    ],
    [
      "3",
      "</w>"
    ],
    [
      "s",
      "h"
    ],
    [
      "c",
      "e</w>"
    ],
    [
      "t",
      "i"
    ],
    [
      "a",
      "t</w>"
    ],
    [
      "a",
      "se"
    ],
    [
      "th",
      "</w>"
    ],
    [
      "f",
      "i"
    ],
    [
      "clu",
      "st"
    ],
    [
      "o",
      "u"
    ],
    [
      "p",
      "er"
    ],
    [
      "s",
      "p"
    ],
    [
      "2",
      "</w>"
    ],
    [
      "m",
      "o"
    ],
    [
      "re",
      "cur"
    ],
    [
      "an",
      "</w>"
    ],
    [
      "6",
      "</w>"
    ],
    [
      "w",
      "ere</w>"
    ],
    [
      "0",
      "0"
    ],
    [
      "h",
      "</w>"
    ],
    [
      "recur",
      "ren"
    ],
    [
      "p",
      "re"
    ],
    [
      "recurren",
      "ce</w>"
    ],
    [
      "d",
      "i"
    ],
    [
      "s",
      "t</w>"
    ],
    [
      "at",
      "ed</w>"
    ],
    [
      "w",
      "h"
    ],
    [
      "wi",
      "th</w>"
    ],
    [
      "dat",
      "ase"
    ],
    [
      "th",
      "at</w>"
    ],
    [
      "u",
      "n"
    ],
    [
      "v",
      "e</w>"
    ],
    [
      "7",
      "</w>"
    ],
    [
      "a",
      "g"
    ],
    [
      "ist",
      "ic"
    ],
    [
      "i",
      "t"
    ],
    [
      "5",
      "</w>"
    ],
    [
      "o",
      "t</w>"
    ],
    [
      "se",
      "n"
    ],
    [
      "o",
      "p"
    ],
    [
      "clust",
      "er"
    ],
    [
      "variabl",
      "es</w>"
    ],
    [
      "an",
      "al"
    ],
    [
      "anal",
      "y"
    ],
    [
      "m",
      "p"
    ],
    [
      "a",
      "ss"
    ],
    [
      "o",
      "w"
    ],
    [
      "t",
      "er"
    ],
    [
      "i",
      "</w>"
    ],
    [
      "w",
      "as</w>"
    ],
    [
      "j",
      "ec"
    ],
    [
      "d",
      "en"
    ],
    [
      "su",
      "per"
    ],
    [
      "super",
      "vi"
    ],
    [
      "supervi",
      "sed</w>"
    ],
    [
      "o",
      "c"
    ],
    [
      "m",
      "e"
    ],
    [
      "es",
      "t</w>"
    ],
    [
      "b",
      "e</w>"
    ],
    [
      "l",
      "e"
    ],
    [
      "b",
      "e"
    ],
    [
      "at",
      "e</w>"
    ],
    [
      "mo",
      "de"
    ],
    [
      "re",
      "sp"
    ],
    [
      "pro",
      "jec"
    ],
    [
      "m",
      "e</w>"
    ],
    [
      "analy",
      "s"
    ],
    [
      "analys",
      "is</w>"
    ],
    [
      "en",
      "t</w>"
    ],
    [
      "resp",
      "on"
    ],
    [
      "d",
      "u"
    ],
    [
      "datase",
      "t</w>"
    ],
    [
      "s",
      "i"
    ],
    [
      "8",
      "</w>"
    ],
    [
      "ar",
      "e</w>"
    ],
    [
      "k",
      "</w>"
    ],
    [
      "respon",
      "se</w>"
    ],
    [
      "i",
      "t</w>"
    ],
    [
      "m",
      "a"
    ],
    [
      "o",
      "th"
    ],
    [
      "t",
      "ion</w>"
    ],
    [
      "’",
      "</w>"
    ],
    [
      "t",
      "est</w>"
    ],
    [
      "t",
      "ed</w>"
    ],
    [
      "abl",
      "e</w>"
    ],
    [
      "e",
      "st"
    ],
    [
      "t",
      "a"
    ],
    [
      "c",
      "on"
    ],
    [
      "e",
      "v"
    ],
    [
      "f",
      "or"
    ],
    [
      "f",
      "ic"
    ],
    [
      "h",
      "a"
    ],
    [
      "•",
      "</w>"
    ],
    [
      "9",
      "9"
    ],
    [
      "en",
      "</w>"
    ],
    [
      "q",
      "u"
    ],
    [
      "on",
      "</w>"
    ],
    [
      "/",
      "</w>"
    ],
    [
      "y",
      "ou"
    ],
    [
      "you",
      "</w>"
    ],
    [
      "n",
      "ot</w>"
    ],
    [
      "re",
      "g"
    ],
    [
      "t",
      "w"
    ],
    [
      "l",
      "l</w>"
    ],
    [
      "th",
      "is</w>"
    ],
    [
      "l",
      "e</w>"
    ],
    [
      "ac",
      "t</w>"
    ],
    [
      "ag",
      "e</w>"
    ],
    [
      "ass",
      "oc"
    ],
    [
      "assoc",
      "i"
    ],
    [
      "00",
      "1</w>"
    ],
    [
      "dat",
      "a</w>"
    ],
    [
      "i",
      "g"
    ],
    [
      "re",
      "d</w>"
    ],
    [
      "ex",
      "act</w>"
    ],
    [
      "u",
      "sed</w>"
    ],
    [
      "9",
      "</w>"
    ],
    [
      "cluster",
      "s</w>"
    ],
    [
      "sh",
      "ow"
    ],
    [
      "ro",
      "u"
    ],
    [
      "co",
      "mp"
    ],
    [
      "st",
      "at"
    ],
    [
      "th",
      "e"
    ],
    [
      "ic",
      "al</w>"
    ],
    [
      "l",
      "s</w>"
    ],
    [
      "an",
      "c"
    ],
    [
      "en",
      "ts</w>"
    ],
    [
      "a",
      "den"
    ],
    [
      "a",
      "th"
    ],
    [
      "p",
      "lo"
    ],
    [
      "g",
      "rou"
    ],
    [
      "s",
      "s</w>"
    ],
    [
      "c",
      "h"
    ],
    [
      "i",
      "fic"
    ],
    [
      "t",
      "ec"
    ],
    [
      "ion",
      "s</w>"
    ],
    [
      "ss",
      "ion</w>"
    ],
    [
      "ur",
      "e</w>"
    ],
    [
      "p",
      "at"
    ],
    [
      "aden",
      "op"
    ],
    [
      "adenop",
      "ath"
    ],
    [
      "adenopath",
      "y</w>"
    ],
    [
      "fi",
      "sh"
    ],
    [
      "fish",
      "er</w>"
    ],
    [
      "mode",
      "l</w>"
    ],
    [
      "i",
      "d</w>"
    ],
    [
      "stat",
      "istic"
    ],
    [
      "re",
      "su"
    ],
    [
      "resu",
      "l"
    ],
    [
      "f",
      "ro"
    ],
    [
      "m",
      "m"
    ],
    [
      "al",
      "u"
    ],
    [
      "it",
      "y</w>"
    ],
    [
      "p",
      "l"
    ],
    [
      "t",
      "re"
    ],
    [
      "e",
      "ar"
    ],
    [
      "variabl",
      "e</w>"
    ],
    [
      "d",
      "ic"
    ],
    [
      "ti",
      "ve</w>"
    ],
    [
      "n",
      "a</w>"
    ],
    [
      "%",
      "</w>"
    ],
    [
      "b",
      "o"
    ],
    [
      "p",
      "o"
    ],
    [
      "or",
      "y</w>"
    ],
    [
      "o",
      "ur"
    ],
    [
      "s",
      "o"
    ],
    [
      "resul",
      "ts</w>"
    ],
    [
      "v",
      "er"
    ],
    [
      "fro",
      "m</w>"
    ],
    [
      "s",
      "ing</w>"
    ],
    [
      "c",
      "h</w>"
    ],
    [
      "pro",
      "tec"
    ],
    [
      "protec",
      "tive</w>"
    ],
    [
      "g",
      "ri"
    ],
    [
      "gri",
      "p</w>"
    ],
    [
      "th",
      "es"
    ],
    [
      "thes",
      "e</w>"
    ],
    [
      "m",
      "i"
    ],
    [
      "c",
      "an</w>"
    ],
    [
      "un",
      "supervised</w>"
    ],
    [
      "du",
      "c"
    ],
    [
      "p",
      "or"
    ],
    [
      "our",
      "</w>"
    ],
    [
      "wh",
      "ic"
    ],
    [
      "whic",
      "h</w>"
    ],
    [
      "st",
      "r"
    ],
    [
      "f",
      "u"
    ],
    [
      "s",
      "k</w>"
    ],
    [
      "<",
      "</w>"
    ],
    [
      "c",
      "t"
    ],
    [
      "s",
      "er"
    ],
    [
      "a",
      "p"
    ],
    [
      "b",
      "u"
    ],
    [
      "tw",
      "o</w>"
    ],
    [
      "an",
      "d"
    ],
    [
      "for",
      "m"
    ],
    [
      "s",
      "or</w>"
    ],
    [
      "c",
      "es"
    ],
    [
      "cluster",
      "ing</w>"
    ],
    [
      "a",
      "u"
    ],
    [
      "pre",
      "dic"
    ],
    [
      "lo",
      "g"
    ],
    [
      "v",
      "alu"
    ],
    [
      "pat",
      "i"
    ],
    [
      "projec",
      "ts</w>"
    ],
    [
      "u",
      "l"
    ],
    [
      "pre",
      "sen"
    ],
    [
      "f",
      "f"
    ],
    [
      "r",
      "</w>"
    ],
    [
      "ex",
      "a"
    ],
    [
      "th",
      "er</w>"
    ],
    [
      "c",
      "e"
    ],
    [
      "in",
      "ter"
    ],
    [
      "th",
      "y"
    ],
    [
      "thy",
      "ro"
    ],
    [
      "thyro",
      "id</w>"
    ],
    [
      "in",
      "to</w>"
    ],
    [
      "cl",
      "in"
    ],
    [
      "associ",
      "ated</w>"
    ],
    [
      "grou",
      "p"
    ],
    [
      "sen",
      "sor</w>"
    ],
    [
      "so",
      "me</w>"
    ],
    [
      "log",
      "istic"
    ],
    [
      "logistic",
      "</w>"
    ],
    [
      "reg",
      "re"
    ],
    [
      "regre",
      "ssion</w>"
    ],
    [
      "b",
      "ot</w>"
    ],
    [
      "y",
      "cl"
    ],
    [
      "lo",
      "ss</w>"
    ],
    [
      "d",
      "e</w>"
    ],
    [
      "i",
      "f</w>"
    ],
    [
      "con",
      "ta"
    ],
    [
      "e",
      "ren"
    ],
    [
      "wi",
      "ll</w>"
    ],
    [
      "y",
      "our</w>"
    ],
    [
      "lo",
      "w"
    ],
    [
      "fu",
      "l</w>"
    ],
    [
      "s",
      "ion</w>"
    ],
    [
      "or",
      "e</w>"
    ],
    [
      "c",
      "anc"
    ],
    [
      "canc",
      "er</w>"
    ],
    [
      "pro",
      "ces"
    ],
    [
      "re",
      "l"
    ],
    [
      "m",
      "in"
    ],
    [
      "ri",
      "sk</w>"
    ],
    [
      "pati",
      "ents</w>"
    ],
    [
      "t",
      "able</w>"
    ],
    [
      "ro",
      "bot</w>"
    ],
    [
      "c",
      "ycl"
    ],
    [
      "ion",
      "al</w>"
    ],
    [
      "u",
      "m"
    ],
    [
      "s",
      "a"
    ],
    [
      "se",
      "s</w>"
    ],
    [
      "di",
      "ff"
    ],
    [
      "diff",
      "eren"
    ],
    [
      "projec",
      "t</w>"
    ],
    [
      "b",
      "y</w>"
    ],
    [
      "e",
      "ther</w>"
    ],
    [
      "i",
      "l"
    ],
    [
      "n",
      "o</w>"
    ],
    [
      "h",
      "ig"
    ],
    [
      "u",
      "sing</w>"
    ],
    [
      "ac",
      "cur"
    ],
    [
      "accur",
      "ac"
    ],
    [
      "accurac",
      "y</w>"
    ],
    [
      "mode",
      "ls</w>"
    ],
    [
      "m",
      "ent</w>"
    ],
    [
      "re",
      "se"
    ],
    [
      "rese",
      "ar"
    ],
    [
      "resear",
      "ch</w>"
    ],
    [
      "cl",
      "ear"
    ],
    [
      "me",
      "an"
    ],
    [
      "op",
      "s</w>"
    ],
    [
      "cl",
      "ass"
    ],
    [
      "clin",
      "ical</w>"
    ],
    [
      "ha",
      "d</w>"
    ],
    [
      "al",
      "l</w>"
    ],
    [
      "show",
      "s</w>"
    ],
    [
      "00",
      "0</w>"
    ],
    [
      "clust",
      "er</w>"
    ],
    [
      "se",
      "l"
    ],
    [
      "(",
      "</w>"
    ],
    [
      "al",
      "ly</w>"
    ],
    [
      ")",
      "</w>"
    ],
    [
      "y",
      "p"
    ],
    [
      "t",
      "er</w>"
    ],
    [
      "c",
      "or"
    ],
    [
      "w",
      "or"
    ],
    [
      "n",
      "</w>"
    ],
    [
      "o",
      "ver"
    ],
    [
      "th",
      "ere</w>"
    ],
    [
      "o",
      "p</w>"
    ],
    [
      "t",
      "ation</w>"
    ],
    [
      "en",
      "d"
    ],
    [
      "an",
      "t</w>"
    ],
    [
      "qu",
      "est"
    ],
    [
      "m",
      "ore</w>"
    ],
    [
      "i",
      "m"
    ],
    [
      "oth",
      "er</w>"
    ],
    [
      "wh",
      "ether</w>"
    ],
    [
      "u",
      "ma"
    ],
    [
      "uma",
      "p</w>"
    ],
    [
      "di",
      "vi"
    ],
    [
      "datase",
      "ts</w>"
    ],
    [
      "ase",
      "s</w>"
    ],
    [
      "s",
      "o</w>"
    ],
    [
      "conta",
      "in"
    ],
    [
      "por",
      "t</w>"
    ],
    [
      "a",
      "d"
    ],
    [
      "er",
      "s</w>"
    ],
    [
      "in",
      "e</w>"
    ],
    [
      "k",
      "e</w>"
    ],
    [
      "ari",
      "s"
    ],
    [
      "at",
      "e"
    ],
    [
      "inter",
      "pre"
    ],
    [
      "t",
      "ar"
    ],
    [
      "me",
      "th"
    ],
    [
      "d",
      "s</w>"
    ],
    [
      "g",
      "e"
    ],
    [
      "t",
      "r"
    ],
    [
      "on",
      "ly</w>"
    ],
    [
      "predic",
      "t"
    ],
    [
      "ex",
      "pl"
    ],
    [
      "ec",
      "i"
    ],
    [
      "b",
      "al"
    ],
    [
      "fi",
      "g"
    ],
    [
      "fig",
      "ure</w>"
    ],
    [
      "valu",
      "e</w>"
    ],
    [
      "1",
      "4</w>"
    ],
    [
      "show",
      "ed</w>"
    ],
    [
      "cycl",
      "es</w>"
    ],
    [
      "plo",
      "t</w>"
    ],
    [
      "st",
      "op</w>"
    ],
    [
      "r",
      "ate</w>"
    ],
    [
      "sel",
      "ec"
    ],
    [
      "i",
      "es</w>"
    ],
    [
      "ou",
      "l"
    ],
    [
      "oul",
      "d</w>"
    ],
    [
      "presen",
      "t</w>"
    ],
    [
      "in",
      "de"
    ],
    [
      "i",
      "den"
    ],
    [
      "d",
      "ist"
    ],
    [
      "dist",
      "ri"
    ],
    [
      "distri",
      "bu"
    ],
    [
      "bo",
      "th</w>"
    ],
    [
      "differen",
      "t</w>"
    ],
    [
      "sp",
      "ec"
    ],
    [
      "comp",
      "le"
    ],
    [
      "statistic",
      "al</w>"
    ],
    [
      "s",
      "c"
    ],
    [
      "a",
      "v"
    ],
    [
      "w",
      "e"
    ],
    [
      "fi",
      "r"
    ],
    [
      "fir",
      "st</w>"
    ],
    [
      "su",
      "b"
    ],
    [
      "exa",
      "m</w>"
    ],
    [
      "hig",
      "h"
    ],
    [
      "co",
      "mm"
    ],
    [
      "re",
      "qu"
    ],
    [
      "requ",
      "i"
    ],
    [
      "h",
      "yp"
    ],
    [
      "hyp",
      "oth"
    ],
    [
      "c",
      "ate"
    ],
    [
      "cate",
      "g"
    ],
    [
      "categ",
      "or"
    ],
    [
      "i",
      "mp"
    ],
    [
      "t",
      "y</w>"
    ],
    [
      "clear",
      "ly</w>"
    ],
    [
      "g",
      "h"
    ],
    [
      "ex",
      "ce"
    ],
    [
      "meth",
      "o"
    ],
    [
      "metho",
      "ds</w>"
    ],
    [
      "ur",
      "3</w>"
    ],
    [
      "co",
      "bo"
    ],
    [
      "cobo",
      "t"
    ],
    [
      "ac",
      "h"
    ],
    [
      "n",
      "ing</w>"
    ],
    [
      "on",
      "e</w>"
    ],
    [
      "w",
      "e</w>"
    ],
    [
      "ow",
      "</w>"
    ],
    [
      "l",
      "l"
    ],
    [
      "an",
      "y</w>"
    ],
    [
      "class",
      "ific"
    ],
    [
      "classific",
      "ation</w>"
    ],
    [
      "tar",
      "ge"
    ],
    [
      "form",
      "ation</w>"
    ],
    [
      "mo",
      "st</w>"
    ],
    [
      "plo",
      "ts</w>"
    ],
    [
      "est",
      "s</w>"
    ],
    [
      "d",
      "eci"
    ],
    [
      "deci",
      "sion</w>"
    ],
    [
      "tre",
      "e</w>"
    ],
    [
      "bal",
      "anc"
    ],
    [
      "balanc",
      "ed</w>"
    ],
    [
      "over",
      "all</w>"
    ],
    [
      "be",
      "ing</w>"
    ],
    [
      "associ",
      "ation</w>"
    ],
    [
      "er",
      "r"
    ],
    [
      "5",
      "4</w>"
    ],
    [
      "2",
      "5</w>"
    ],
    [
      "re",
      "duc"
    ],
    [
      "m",
      "u"
    ],
    [
      "c",
      "ases</w>"
    ],
    [
      "sh",
      "ould</w>"
    ],
    [
      "n",
      "um"
    ],
    [
      "mi",
      "x"
    ],
    [
      "u",
      "se</w>"
    ],
    [
      "sa",
      "me</w>"
    ],
    [
      "l",
      "es"
    ],
    [
      "spec",
      "ific"
    ],
    [
      "f",
      "un"
    ],
    [
      "l",
      "i"
    ],
    [
      "k",
      "ing</w>"
    ],
    [
      "le",
      "ar"
    ],
    [
      "v",
      "ing</w>"
    ],
    [
      "m",
      "at"
    ],
    [
      "er",
      "i"
    ],
    [
      "wor",
      "k</w>"
    ],
    [
      "str",
      "u"
    ],
    [
      "stru",
      "ct"
    ],
    [
      "p",
      "t</w>"
    ],
    [
      "t",
      "t"
    ],
    [
      "a",
      "s"
    ],
    [
      "o",
      "l"
    ],
    [
      "al",
      "ity</w>"
    ],
    [
      "ch",
      "ec"
    ],
    [
      "requi",
      "red</w>"
    ],
    [
      "?",
      "</w>"
    ],
    [
      "b",
      "le</w>"
    ],
    [
      "iden",
      "ti"
    ],
    [
      "p",
      "ar"
    ],
    [
      "fi",
      "ed</w>"
    ],
    [
      "2",
      "6</w>"
    ],
    [
      "m",
      "en"
    ],
    [
      "cobot",
      "ops</w>"
    ],
    [
      "comple",
      "t"
    ],
    [
      "complet",
      "e</w>"
    ],
    [
      "su",
      "it"
    ],
    [
      "suit",
      "able</w>"
    ],
    [
      "ap",
      "p"
    ],
    [
      "oth",
      "ers</w>"
    ],
    [
      "targe",
      "t</w>"
    ],
    [
      "a",
      "f"
    ],
    [
      "af",
      "ter</w>"
    ],
    [
      "b",
      "ec"
    ],
    [
      "bec",
      "au"
    ],
    [
      "becau",
      "se</w>"
    ],
    [
      "min",
      "ate</w>"
    ],
    [
      "g",
      "end"
    ],
    [
      "gend",
      "er</w>"
    ],
    [
      "or",
      "s</w>"
    ],
    [
      "expl",
      "or"
    ],
    [
      "explor",
      "at"
    ],
    [
      "explorat",
      "ory</w>"
    ],
    [
      "be",
      "tw"
    ],
    [
      "betw",
      "e"
    ],
    [
      "betwe",
      "en</w>"
    ],
    [
      "tre",
      "at"
    ],
    [
      "treat",
      "ment</w>"
    ],
    [
      "in",
      "formation</w>"
    ],
    [
      "1",
      "2</w>"
    ],
    [
      "99",
      "9</w>"
    ],
    [
      "reduc",
      "ed</w>"
    ],
    [
      "th",
      "an</w>"
    ],
    [
      "group",
      "s</w>"
    ],
    [
      "ss",
      "i"
    ],
    [
      "ev",
      "ent</w>"
    ],
    [
      "grou",
      "p</w>"
    ]
  ]
}